{
  "version": "1.0",
  "truncation": null,
  "padding": null,
  "added_tokens": [
    {
      "id": 0,
      "content": "<pad>",
      "single_word": false,
      "lstrip": false,
      "rstrip": false,
      "normalized": false,
      "special": true
    },
    {
      "id": 1,
      "content": "<unk>",
      "single_word": false,
      "lstrip": false,
      "rstrip": false,
      "normalized": false,
      "special": true
    },
    {
      "id": 2,
      "content": "<sos>",
      "single_word": false,
      "lstrip": false,
      "rstrip": false,
      "normalized": false,
      "special": true
    },
    {
      "id": 3,
      "content": "<eos>",
      "single_word": false,
      "lstrip": false,
      "rstrip": false,
      "normalized": false,
      "special": true
    }
  ],
  "normalizer": null,
  "pre_tokenizer": {
    "type": "ByteLevel",
    "add_prefix_space": false,
    "trim_offsets": true,
    "use_regex": true
  },
  "post_processor": null,
  "decoder": {
    "type": "ByteLevel",
    "add_prefix_space": true,
    "trim_offsets": true,
    "use_regex": true
  },
  "model": {
    "type": "BPE",
    "dropout": null,
    "unk_token": null,
    "continuing_subword_prefix": null,
    "end_of_word_suffix": null,
    "fuse_unk": false,
    "byte_fallback": false,
    "ignore_merges": false,
    "vocab": {
      "<pad>": 0,
      "<unk>": 1,
      "<sos>": 2,
      "<eos>": 3,
      "!": 4,
      "\"": 5,
      "#": 6,
      "$": 7,
      "%": 8,
      "&": 9,
      "'": 10,
      "(": 11,
      ")": 12,
      "*": 13,
      "+": 14,
      ",": 15,
      "-": 16,
      ".": 17,
      "/": 18,
      "0": 19,
      "1": 20,
      "2": 21,
      "3": 22,
      "4": 23,
      "5": 24,
      "6": 25,
      "7": 26,
      "8": 27,
      "9": 28,
      ":": 29,
      ";": 30,
      "<": 31,
      "=": 32,
      ">": 33,
      "?": 34,
      "@": 35,
      "A": 36,
      "B": 37,
      "C": 38,
      "D": 39,
      "E": 40,
      "F": 41,
      "G": 42,
      "H": 43,
      "I": 44,
      "J": 45,
      "K": 46,
      "L": 47,
      "M": 48,
      "N": 49,
      "O": 50,
      "P": 51,
      "Q": 52,
      "R": 53,
      "S": 54,
      "T": 55,
      "U": 56,
      "V": 57,
      "W": 58,
      "X": 59,
      "Y": 60,
      "Z": 61,
      "[": 62,
      "\\": 63,
      "]": 64,
      "^": 65,
      "_": 66,
      "`": 67,
      "a": 68,
      "b": 69,
      "c": 70,
      "d": 71,
      "e": 72,
      "f": 73,
      "g": 74,
      "h": 75,
      "i": 76,
      "j": 77,
      "k": 78,
      "l": 79,
      "m": 80,
      "n": 81,
      "o": 82,
      "p": 83,
      "q": 84,
      "r": 85,
      "s": 86,
      "t": 87,
      "u": 88,
      "v": 89,
      "w": 90,
      "x": 91,
      "y": 92,
      "z": 93,
      "{": 94,
      "|": 95,
      "}": 96,
      "~": 97,
      "Ã": 98,
      "ĉ": 99,
      "Ċ": 100,
      "Č": 101,
      "č": 102,
      "Ě": 103,
      "Ġ": 104,
      "ĸ": 105,
      "Ġt": 106,
      "he": 107,
      "čĊ": 108,
      "Ġa": 109,
      "ĠĠ": 110,
      "in": 111,
      "Ġthe": 112,
      "Ġo": 113,
      "re": 114,
      "Ġw": 115,
      "Ġs": 116,
      "nd": 117,
      "ha": 118,
      "er": 119,
      "ou": 120,
      "it": 121,
      "is": 122,
      "Ġb": 123,
      "on": 124,
      "Ġm": 125,
      "ĠĠĠĠ": 126,
      "Ġof": 127,
      "en": 128,
      "ed": 129,
      "Ġf": 130,
      "Ġc": 131,
      "Ġand": 132,
      "or": 133,
      "es": 134,
      "Ġto": 135,
      "ing": 136,
      "Ġp": 137,
      "ll": 138,
      "Ġin": 139,
      "Ġd": 140,
      "ar": 141,
      "at": 142,
      "an": 143,
      "as": 144,
      "Ġn": 145,
      "Ġh": 146,
      "Ġl": 147,
      "om": 148,
      "hat": 149,
      "ĠI": 150,
      "le": 151,
      "Ġhe": 152,
      "Ġha": 153,
      "ic": 154,
      "Ġbe": 155,
      "ot": 156,
      "Ġg": 157,
      "ut": 158,
      "ow": 159,
      "Ġe": 160,
      "st": 161,
      "se": 162,
      "ion": 163,
      "ve": 164,
      "Ġth": 165,
      "im": 166,
      "Ġit": 167,
      "Ġthat": 168,
      "ce": 169,
      "ld": 170,
      "ent": 171,
      "ly": 172,
      "ĠĠĠĠĠĠĠĠ": 173,
      "al": 174,
      "id": 175,
      "Ġy": 176,
      "gh": 177,
      "Ġu": 178,
      "Ġre": 179,
      "Ġis": 180,
      "ay": 181,
      "ir": 182,
      "ĠčĊ": 183,
      "Ġwh": 184,
      "ith": 185,
      "ver": 186,
      "et": 187,
      "Ġon": 188,
      "Ġwas": 189,
      "ur": 190,
      "Ġyou": 191,
      "ĠT": 192,
      "Ġas": 193,
      "Ġfor": 194,
      "ct": 195,
      "the": 196,
      "Ġwith": 197,
      "Ġwe": 198,
      "Ġhis": 199,
      "ro": 200,
      "ad": 201,
      "ght": 202,
      "Ġan": 203,
      "Ġst": 204,
      "Ġnot": 205,
      "ri": 206,
      "ould": 207,
      "ch": 208,
      "ra": 209,
      "if": 210,
      "am": 211,
      "oo": 212,
      "ich": 213,
      "ter": 214,
      "and": 215,
      "ill": 216,
      "Ġme": 217,
      "Ġat": 218,
      "ain": 219,
      "Ġhad": 220,
      "ke": 221,
      "ess": 222,
      "ĠA": 223,
      "ore": 224,
      "th": 225,
      "Ġse": 226,
      "Ġwhich": 227,
      "Ġsu": 228,
      "Ġmy": 229,
      "il": 230,
      "pe": 231,
      "ĠS": 232,
      "Ġhave": 233,
      "her": 234,
      "ĠThe": 235,
      "rom": 236,
      "Ġso": 237,
      "ĠM": 238,
      "Ġby": 239,
      "Ġhim": 240,
      "Ġcon": 241,
      "ul": 242,
      "all": 243,
      "Ġbut": 244,
      "ĠH": 245,
      "Ġde": 246,
      "Ġor": 247,
      "ge": 248,
      "'s": 249,
      "Ġ\"": 250,
      "red": 251,
      "Ġthis": 252,
      "ation": 253,
      "qu": 254,
      "ome": 255,
      "Ġup": 256,
      "Ġall": 257,
      "ble": 258,
      "Ġsa": 259,
      "ight": 260,
      "Ġk": 261,
      "ck": 262,
      "res": 263,
      "us": 264,
      "to": 265,
      "Ġfrom": 266,
      "est": 267,
      "Ġare": 268,
      "Ġex": 269,
      "pp": 270,
      "os": 271,
      "Ġne": 272,
      "Ġher": 273,
      "ĠB": 274,
      "Ġdo": 275,
      "Ġwhe": 276,
      "Ġsh": 277,
      "ust": 278,
      "ous": 279,
      "Ġthey": 280,
      "un": 281,
      "ind": 282,
      "Ġman": 283,
      "Ġv": 284,
      "ĠĠĠĠĠĠĠĠĠĠĠĠĠĠĠĠ": 285,
      "Ġno": 286,
      "um": 287,
      "--": 288,
      "ĠW": 289,
      "our": 290,
      "ard": 291,
      "em": 292,
      "Ġone": 293,
      "ong": 294,
      "art": 295,
      "ant": 296,
      "ers": 297,
      "ate": 298,
      "Ġr": 299,
      "sel": 300,
      "ĠC": 301,
      "Ġal": 302,
      "ive": 303,
      "ther": 304,
      "Ġthem": 305,
      "ure": 306,
      "very": 307,
      "ood": 308,
      "han": 309,
      "ist": 310,
      "ect": 311,
      "ity": 312,
      "ol": 313,
      "Ġthere": 314,
      "ame": 315,
      "ound": 316,
      "Ġwho": 317,
      "out": 318,
      "ast": 319,
      "Ġwere": 320,
      "la": 321,
      "Ġsaid": 322,
      "ell": 323,
      "ĠĠĠĠĠĠ": 324,
      "one": 325,
      "Ġtheir": 326,
      "ig": 327,
      "Ġwould": 328,
      "pt": 329,
      "Ġkn": 330,
      "Ġcom": 331,
      "Ġwill": 332,
      "ak": 333,
      "Ġpro": 334,
      "nt": 335,
      "ĠP": 336,
      "iv": 337,
      "Ġ'": 338,
      "ie": 339,
      "ough": 340,
      "reat": 341,
      ".\"": 342,
      "od": 343,
      "of": 344,
      "Ġwor": 345,
      "el": 346,
      "Ġle": 347,
      "Ġshe": 348,
      "Ġab": 349,
      "own": 350,
      "Ġif": 351,
      "Ġj": 352,
      "Ġout": 353,
      "The": 354,
      "self": 355,
      "ort": 356,
      "ies": 357,
      "Ġupon": 358,
      "ence": 359,
      "Ġbeen": 360,
      "Ġcan": 361,
      "Ġfa": 362,
      "ide": 363,
      "Ġother": 364,
      "per": 365,
      "Ġwhat": 366,
      "Ġwhen": 367,
      "Ġun": 368,
      "ose": 369,
      "ost": 370,
      "ook": 371,
      "Ġany": 372,
      "itt": 373,
      "Ġyour": 374,
      "ry": 375,
      "ime": 376,
      "Ġour": 377,
      "ond": 378,
      "ci": 379,
      "ment": 380,
      "ĠF": 381,
      "Ġar": 382,
      "able": 383,
      "Ġus": 384,
      "ake": 385,
      "ĠD": 386,
      "'t": 387,
      "cc": 388,
      "Ġmore": 389,
      "fore": 390,
      "Ġag": 391,
      "ud": 392,
      "ven": 393,
      "Ġsome": 394,
      "te": 395,
      "ance": 396,
      "pl": 397,
      "ple": 398,
      "Ġli": 399,
      "hed": 400,
      "Ġam": 401,
      "Ġqu": 402,
      "ag": 403,
      "ass": 404,
      "ĠĠĠĠĠĠĠ": 405,
      "ĠL": 406,
      "ff": 407,
      "ĠHe": 408,
      "Ġfe": 409,
      "Ġcould": 410,
      "be": 411,
      "Ġinto": 412,
      "ine": 413,
      "Ġsha": 414,
      "Ġhas": 415,
      "hing": 416,
      "ru": 417,
      "way": 418,
      "au": 419,
      "ĠO": 420,
      "ĠG": 421,
      "ĠE": 422,
      "other": 423,
      "urn": 424,
      "ĠN": 425,
      "ĠMr": 426,
      "Ġthen": 427,
      "ions": 428,
      "Ġthan": 429,
      "ite": 430,
      "Ġgo": 431,
      "we": 432,
      "Ġknow": 433,
      "Ġits": 434,
      "Ġsp": 435,
      "Ġim": 436,
      ",\"": 437,
      "ove": 438,
      "ep": 439,
      "ord": 440,
      "ings": 441,
      "ĠIt": 442,
      "Ġtime": 443,
      "ally": 444,
      "Ġsay": 445,
      "Ġtw": 446,
      "bl": 447,
      "ice": 448,
      "ish": 449,
      "are": 450,
      "nder": 451,
      "ire": 452,
      "wn": 453,
      "Ġen": 454,
      "ought": 455,
      "Ġro": 456,
      "Ġdis": 457,
      "ink": 458,
      "Ġnow": 459,
      "ick": 460,
      "Ġpr": 461,
      "Ġmay": 462,
      "Ġshould": 463,
      "ran": 464,
      "ars": 465,
      "Ġonly": 466,
      "Ġgreat": 467,
      "Ġvery": 468,
      "ade": 469,
      "Ġsee": 470,
      "Ġcl": 471,
      "Ġad": 472,
      "ree": 473,
      "ac": 474,
      "Ġthese": 475,
      "ng": 476,
      "Ġhand": 477,
      "Ġlike": 478,
      "Ġgood": 479,
      "Ġmust": 480,
      "ittle": 481,
      "Ġpart": 482,
      "ty": 483,
      "ress": 484,
      "his": 485,
      "ary": 486,
      "for": 487,
      "age": 488,
      "Ġtoo": 489,
      "ount": 490,
      "ject": 491,
      "ber": 492,
      "ack": 493,
      "Ġagain": 494,
      "ile": 495,
      "ap": 496,
      "Ġpo": 497,
      "Ġabout": 498,
      "Ġper": 499,
      "tain": 500,
      "oss": 501,
      "ĠBut": 502,
      "ab": 503,
      "ition": 504,
      "man": 505,
      "fe": 506,
      "uch": 507,
      "ach": 508,
      "ved": 509,
      "ne": 510,
      "Ġgr": 511,
      "ied": 512,
      "Ġsuch": 513,
      "Ġch": 514,
      "Ġlittle": 515,
      "irst": 516,
      "?\"": 517,
      "Ġlook": 518,
      "ful": 519,
      "ated": 520,
      "ark": 521,
      "Ġover": 522,
      "fter": 523,
      "ĠJ": 524,
      "Ġ(": 525,
      "Ġdown": 526,
      "Ġdid": 527,
      "ward": 528,
      "Ġtwo": 529,
      "right": 530,
      "ife": 531,
      "not": 532,
      "oll": 533,
      "Ġob": 534,
      "ness": 535,
      "wh": 536,
      "Ġday": 537,
      "Ġhow": 538,
      "Ġthr": 539,
      "that": 540,
      "ĠAnd": 541,
      "ise": 542,
      "Ġpre": 543,
      ",'": 544,
      "Ġway": 545,
      "Ġbr": 546,
      "end": 547,
      "so": 548,
      "ves": 549,
      "Ġbefore": 550,
      "ious": 551,
      "de": 552,
      "con": 553,
      "Ġcha": 554,
      "old": 555,
      "op": 556,
      "int": 557,
      "Ġevery": 558,
      "Ġpl": 559,
      "ces": 560,
      "Ġspe": 561,
      "ĠR": 562,
      "oy": 563,
      "led": 564,
      "ens": 565,
      "Ġbl": 566,
      "ible": 567,
      "ĠY": 568,
      "Ġown": 569,
      "Ġrem": 570,
      "ue": 571,
      "Ġold": 572,
      "ull": 573,
      "ical": 574,
      "Ġlong": 575,
      "hen": 576,
      "Ġunder": 577,
      "Ġra": 578,
      "Ġpe": 579,
      "ild": 580,
      "ather": 581,
      "Ġoff": 582,
      "Ġmade": 583,
      "cl": 584,
      "orn": 585,
      "Ġcont": 586,
      "Ġwhere": 587,
      "Ġnever": 588,
      "ath": 589,
      "ase": 590,
      "Ġshall": 591,
      "Ġ--": 592,
      "og": 593,
      "aw": 594,
      "Ġbet": 595,
      "Ġmight": 596,
      "ced": 597,
      "Ġfirst": 598,
      "Ġey": 599,
      "Ġfl": 600,
      "Ġsame": 601,
      ".'": 602,
      "ause": 603,
      "Ġres": 604,
      "Ġsc": 605,
      "Ġcome": 606,
      "Ġbec": 607,
      "ip": 608,
      "And": 609,
      "ft": 610,
      "Ġdes": 611,
      "cept": 612,
      "Ġbeing": 613,
      "ign": 614,
      "ving": 615,
      "iz": 616,
      "Ġthink": 617,
      "Ġsm": 618,
      "ason": 619,
      "Ġhere": 620,
      "Ġwell": 621,
      "Ġafter": 622,
      "Ġpla": 623,
      "oth": 624,
      "Ġnat": 625,
      "resent": 626,
      "ction": 627,
      "Ġmuch": 628,
      "iss": 629,
      "Ġeven": 630,
      "Ġtr": 631,
      "ady": 632,
      "Ġmen": 633,
      "ily": 634,
      "ren": 635,
      "Ġacc": 636,
      "Ġmost": 637,
      "ans": 638,
      "ever": 639,
      "ave": 640,
      "Ġlet": 641,
      "Ġthose": 642,
      "ĠĠĠĠĠĠĠĠĠĠ": 643,
      "atter": 644,
      "ract": 645,
      "ĠĠĠĠĠĠĠĠĠĠĠĠĠĠĠĠĠĠĠĠĠĠĠĠĠĠĠĠĠĠĠĠ": 646,
      "Ġbel": 647,
      "Ġback": 648,
      "Ġcons": 649,
      "Ġjust": 650,
      "omet": 651,
      "Ġ-": 652,
      "Ġthrough": 653,
      "pect": 654,
      "Ġimp": 655,
      "ither": 656,
      "Ġthought": 657,
      "ried": 658,
      "ody": 659,
      "Ġmake": 660,
      "Ġform": 661,
      "riend": 662,
      "with": 663,
      "ult": 664,
      "ĠIn": 665,
      "ors": 666,
      "Ġcomm": 667,
      "Ġye": 668,
      "Ġgl": 669,
      "cess": 670,
      "hy": 671,
      "ory": 672,
      "ouse": 673,
      "Ġpass": 674,
      "hes": 675,
      "ater": 676,
      "Ġapp": 677,
      "Ġhead": 678,
      "Ġsub": 679,
      "ex": 680,
      "less": 681,
      "ps": 682,
      "but": 683,
      "ations": 684,
      "Ġseem": 685,
      "Ġap": 686,
      "Ġcame": 687,
      "!\"": 688,
      "ged": 689,
      "ener": 690,
      "ked": 691,
      "Ġthing": 692,
      "Ġhimself": 693,
      "Ġlife": 694,
      "ict": 695,
      "ger": 696,
      "me": 697,
      "Ġyet": 698,
      "Ġword": 699,
      "Ġlast": 700,
      "ertain": 701,
      "Ġposs": 702,
      "Ġcomp": 703,
      "Ġanother": 704,
      "ince": 705,
      "Ġend": 706,
      "Ġcall": 707,
      "Ġright": 708,
      "Ġturn": 709,
      "lf": 710,
      "sh": 711,
      "Ġfriend": 712,
      "Ġ1": 713,
      "here": 714,
      "Ġthings": 715,
      "He": 716,
      "Ġfar": 717,
      "Ġstill": 718,
      "Ġem": 719,
      "ock": 720,
      "Ġfound": 721,
      "Ġop": 722,
      "li": 723,
      "Ġwr": 724,
      "Ġwithout": 725,
      "su": 726,
      "Ġmany": 727,
      "ted": 728,
      "Ġent": 729,
      "ĠK": 730,
      "row": 731,
      "ER": 732,
      "oc": 733,
      "igh": 734,
      "It": 735,
      "up": 736,
      "Ġever": 737,
      "Ġreason": 738,
      "Ġbeg": 739,
      "Ġke": 740,
      "ways": 741,
      "ower": 742,
      "Ġaway": 743,
      "Ġret": 744,
      "ened": 745,
      "Ġeyes": 746,
      "arn": 747,
      "Ġget": 748,
      "ĠĠĠ": 749,
      "'d": 750,
      "med": 751,
      "ollow": 752,
      "av": 753,
      "Ġnothing": 754,
      "Ġatt": 755,
      "Ġtake": 756,
      "Ġdist": 757,
      "Ġnight": 758,
      "thing": 759,
      "Ġrep": 760,
      "Ġplace": 761,
      "Ġmind": 762,
      "get": 763,
      "ople": 764,
      "Ġinst": 765,
      "com": 766,
      "ace": 767,
      "ons": 768,
      "Ġdif": 769,
      "ĠFor": 770,
      "Ġsomet": 771,
      "erm": 772,
      "ates": 773,
      "Ġlaw": 774,
      "was": 775,
      "ew": 776,
      "ined": 777,
      "Ġalso": 778,
      "Ġple": 779,
      "Ġtra": 780,
      "Ġhar": 781,
      "ĠThere": 782,
      "Ġface": 783,
      "ĠWe": 784,
      "ret": 785,
      "which": 786,
      "its": 787,
      "ents": 788,
      "xt": 789,
      "Ġint": 790,
      "vers": 791,
      "ib": 792,
      "ian": 793,
      "Ġwhile": 794,
      "ered": 795,
      "als": 796,
      "Ġkind": 797,
      "Ġpers": 798,
      "ared": 799,
      "aking": 800,
      "Ġworld": 801,
      "Ġobject": 802,
      "pos": 803,
      "ished": 804,
      "Ġcour": 805,
      "ĠĠĠĠĠĠčĊ": 806,
      "Ġact": 807,
      "Ġfind": 808,
      "ense": 809,
      "und": 810,
      "EN": 811,
      "Ġheart": 812,
      "Ġnew": 813,
      "Ġchan": 814,
      "ĠSt": 815,
      "ope": 816,
      "IN": 817,
      "Ġsl": 818,
      "Ġnor": 819,
      "Ġtell": 820,
      "rest": 821,
      "imes": 822,
      "Ġpeople": 823,
      "Ġcount": 824,
      "Ġgot": 825,
      "du": 826,
      "Ġput": 827,
      "Ġsec": 828,
      "?'": 829,
      "selves": 830,
      "Ġser": 831,
      "Ġalways": 832,
      "Ġyoung": 833,
      "Ġsupp": 834,
      "ting": 835,
      "!'": 836,
      "land": 837,
      "arly": 838,
      "aid": 839,
      "Ġrel": 840,
      "entle": 841,
      "ser": 842,
      "'ll": 843,
      "ual": 844,
      "Ġsaw": 845,
      "But": 846,
      "ĠĠĠĠĠĠĠĠĠĠĠĠ": 847,
      "mer": 848,
      "over": 849,
      "Ġtru": 850,
      "Ġonce": 851,
      "Ġnature": 852,
      "by": 853,
      "les": 854,
      "ently": 855,
      "Ġset": 856,
      "AR": 857,
      "aut": 858,
      "Ġfollow": 859,
      "Ġev": 860,
      "Ġappe": 861,
      "Ġgener": 862,
      "ffect": 863,
      "Ġhapp": 864,
      "Ġpresent": 865,
      "ĠThis": 866,
      "iness": 867,
      "You": 868,
      "Ġboth": 869,
      "Ġlight": 870,
      "ĠV": 871,
      "Ġac": 872,
      "Ġhouse": 873,
      "ures": 874,
      "air": 875,
      "ks": 876,
      "ss": 877,
      "king": 878,
      "Ġcannot": 879,
      "Ġdone": 880,
      "Ġreg": 881,
      "Ġgive": 882,
      "ĠTh": 883,
      "Ġwent": 884,
      "ute": 885,
      "ung": 886,
      "Ġlove": 887,
      "Ġeach": 888,
      "ang": 889,
      "ĠYou": 890,
      "ner": 891,
      "der": 892,
      "ched": 893,
      "gg": 894,
      "ial": 895,
      "uth": 896,
      "pr": 897,
      "Ġthree": 898,
      "Ġwhole": 899,
      "ĠThey": 900,
      "Ġpur": 901,
      "Ġcar": 902,
      "Ġgra": 903,
      "Ġbecause": 904,
      "oment": 905,
      "Ġthough": 906,
      "Ġname": 907,
      "Ġte": 908,
      "ĠIf": 909,
      "Ġfell": 910,
      "Ġreturn": 911,
      "Ġsw": 912,
      "Ġmo": 913,
      "ween": 914,
      "pped": 915,
      "inci": 916,
      "ail": 917,
      "ia": 918,
      "Ġgiv": 919,
      "Ġleft": 920,
      "ling": 921,
      "Ġchild": 922,
      "Ġmatter": 923,
      "Ġwom": 924,
      "ON": 925,
      "Ġart": 926,
      "you": 927,
      "Ġrest": 928,
      "den": 929,
      "Ġgu": 930,
      "Ġwar": 931,
      "Ġbetter": 932,
      "Ġdoes": 933,
      "Ġsur": 934,
      "Ġdisc": 935,
      "arth": 936,
      "Ġside": 937,
      "Ġwant": 938,
      "stand": 939,
      "ited": 940,
      "ix": 941,
      "Ġpleas": 942,
      "act": 943,
      "ins": 944,
      "Ġpoint": 945,
      "Ġcase": 946,
      "rew": 947,
      "Ġcr": 948,
      "Ġdet": 949,
      "icul": 950,
      "Ġind": 951,
      "Ġhands": 952,
      "Ġamong": 953,
      "Ġsomething": 954,
      "Ġocc": 955,
      "Ġexp": 956,
      "Ġrec": 957,
      "cy": 958,
      "Ġdon": 959,
      "Ġwind": 960,
      "Ġtook": 961,
      "Ġbo": 962,
      "Ġhum": 963,
      "Ġcertain": 964,
      "ows": 965,
      "lack": 966,
      "ool": 967,
      "Ġitself": 968,
      "Ġthou": 969,
      "AN": 970,
      "Ġmoment": 971,
      "pro": 972,
      "What": 973,
      "Ġsir": 974,
      "ale": 975,
      "Ġconf": 976,
      "ĠĠĠĠĠĠĠĠčĊ": 977,
      "Ġseen": 978,
      "Ġagainst": 979,
      "Ġcle": 980,
      "ired": 981,
      "Ġdoor": 982,
      "Ġmyself": 983,
      "Ġgentle": 984,
      "Ġtrue": 985,
      "Ġunt": 986,
      "Ġmean": 987,
      "ived": 988,
      "Ġtoward": 989,
      "mes": 990,
      "Ġinf": 991,
      "Ġsat": 992,
      "Ġinter": 993,
      "rent": 994,
      "ative": 995,
      "Ġri": 996,
      "Ġyears": 997,
      "ĠShe": 998,
      "Ġbre": 999,
      "ality": 1000,
      "most": 1001,
      "ider": 1002,
      "Ġdra": 1003,
      "ES": 1004,
      "US": 1005,
      "gether": 1006,
      "tend": 1007,
      "Ġread": 1008,
      "ised": 1009,
      "Ġ&": 1010,
      "ms": 1011,
      "Ġhour": 1012,
      "Ġfact": 1013,
      "any": 1014,
      "ments": 1015,
      "har": 1016,
      "Ġbetween": 1017,
      "ob": 1018,
      "Ġinde": 1019,
      "Ġhalf": 1020,
      "sp": 1021,
      "Ġsou": 1022,
      "Ġass": 1023,
      "ience": 1024,
      "Ġsince": 1025,
      "ating": 1026,
      "Ġthy": 1027,
      "ene": 1028,
      "Ġfeel": 1029,
      "men": 1030,
      "zan": 1031,
      "unt": 1032,
      "Ġstre": 1033,
      "Ġste": 1034,
      "ning": 1035,
      "aken": 1036,
      "Ġlooked": 1037,
      "Ġcond": 1038,
      "Ġnecess": 1039,
      "Ġca": 1040,
      "ross": 1041,
      "Ġwork": 1042,
      "Ġlay": 1043,
      "estion": 1044,
      "Ġbody": 1045,
      "Ġpri": 1046,
      "had": 1047,
      "Ġheard": 1048,
      "Ġwithin": 1049,
      "Ġroom": 1050,
      "ten": 1051,
      "aster": 1052,
      "arzan": 1053,
      "bt": 1054,
      "ident": 1055,
      "aught": 1056,
      "vent": 1057,
      "cul": 1058,
      "To": 1059,
      "That": 1060,
      "ubl": 1061,
      "my": 1062,
      "Ġdou": 1063,
      "Ġprinci": 1064,
      "ĠEng": 1065,
      "Ġboy": 1066,
      "Ġbelie": 1067,
      "Ġbest": 1068,
      "Ġstand": 1069,
      "Ġhat": 1070,
      "Ġans": 1071,
      "Ġel": 1072,
      "ier": 1073,
      "Ġsmall": 1074,
      "Ġtre": 1075,
      "aring": 1076,
      "Ġless": 1077,
      "Ġstr": 1078,
      "Ġsubject": 1079,
      "ĠThat": 1080,
      "oot": 1081,
      "atch": 1082,
      "Ġmere": 1083,
      "Ġfew": 1084,
      "Ġuntil": 1085,
      "Ġstran": 1086,
      "Ġjud": 1087,
      "ph": 1088,
      "now": 1089,
      "terest": 1090,
      "olmes": 1091,
      "ility": 1092,
      "Ġwa": 1093,
      "Ġpower": 1094,
      "fect": 1095,
      "Ġmon": 1096,
      "ceed": 1097,
      "cri": 1098,
      "Ġfore": 1099,
      "Ġquite": 1100,
      "ĠAs": 1101,
      "oice": 1102,
      "Ġadd": 1103,
      "Ġseemed": 1104,
      "Ġturned": 1105,
      "Ġwater": 1106,
      "ĠWhat": 1107,
      "Ġothers": 1108,
      "Ġexist": 1109,
      "Ġperson": 1110,
      "have": 1111,
      "Ġwhom": 1112,
      "Ġhon": 1113,
      "ities": 1114,
      "Ġsy": 1115,
      "Ġmar": 1116,
      "Ġide": 1117,
      "Ġdiffe": 1118,
      "Ġ.": 1119,
      "Ġenough": 1120,
      "Ġbro": 1121,
      "Ġuse": 1122,
      "Ġstate": 1123,
      "Ġref": 1124,
      "Ġsays": 1125,
      "ĠĠĠĠĠĠĠĠĠĠĠčĊ": 1126,
      "ird": 1127,
      "ĠThen": 1128,
      "Ġking": 1129,
      "Ġeither": 1130,
      "Ġcalled": 1131,
      "Ġknew": 1132,
      "Ġsoon": 1133,
      "Ġtal": 1134,
      "In": 1135,
      "Ġco": 1136,
      "Ġdead": 1137,
      "ison": 1138,
      "uck": 1139,
      "son": 1140,
      "mon": 1141,
      "ĠĠĠĠĠĠĠĠĠčĊ": 1142,
      "Ġwords": 1143,
      "ĠĠĠĠĠĠĠĠĠĠčĊ": 1144,
      "Ġfather": 1145,
      "Ġtherefore": 1146,
      "body": 1147,
      "ude": 1148,
      "HE": 1149,
      "oud": 1150,
      "rence": 1151,
      "Ġdel": 1152,
      "Ġsure": 1153,
      "Ġhigh": 1154,
      "ton": 1155,
      "att": 1156,
      "ery": 1157,
      "ĠTom": 1158,
      "Ġkeep": 1159,
      "Ġmin": 1160,
      "form": 1161,
      "Ġdark": 1162,
      "Ġsil": 1163,
      "Ġair": 1164,
      "Ġcourse": 1165,
      "Ġblack": 1166,
      "Ġfull": 1167,
      "cious": 1168,
      "ĠĠčĊ": 1169,
      "ention": 1170,
      "Ġdeath": 1171,
      "Ġhowever": 1172,
      "We": 1173,
      "iet": 1174,
      "orning": 1175,
      "Ġsim": 1176,
      "iew": 1177,
      "ĠU": 1178,
      "Ġcur": 1179,
      "Ġcountry": 1180,
      "Ġopp": 1181,
      "akes": 1182,
      "oke": 1183,
      "Ġhaving": 1184,
      "Ġhard": 1185,
      "ĠHolmes": 1186,
      "Ġtri": 1187,
      "Ġgoing": 1188,
      "Ġwhether": 1189,
      "irl": 1190,
      "Ġsing": 1191,
      "ublic": 1192,
      "osed": 1193,
      "Ġche": 1194,
      "There": 1195,
      "Ġdire": 1196,
      "Ġcor": 1197,
      "Ġadm": 1198,
      "Ġbus": 1199,
      "plied": 1200,
      "Ġopen": 1201,
      "Ġbeaut": 1202,
      "Ġhor": 1203,
      "Ġ2": 1204,
      "there": 1205,
      "him": 1206,
      "Ġremain": 1207,
      "Ġthus": 1208,
      "ron": 1209,
      "Ġconst": 1210,
      "Ġbeh": 1211,
      "Ġnum": 1212,
      "Ġabove": 1213,
      "day": 1214,
      "wer": 1215,
      "Ġspeak": 1216,
      "Ġanim": 1217,
      "ives": 1218,
      "Ġshow": 1219,
      "OR": 1220,
      "from": 1221,
      "ately": 1222,
      "Ġalong": 1223,
      "Ġsle": 1224,
      "gr": 1225,
      "Ġinc": 1226,
      "Ġmet": 1227,
      "haps": 1228,
      "undred": 1229,
      "Ġpossible": 1230,
      "par": 1231,
      "Ġround": 1232,
      "Ġhome": 1233,
      "),": 1234,
      "ield": 1235,
      "Ġhope": 1236,
      "Ġext": 1237,
      "Well": 1238,
      "ken": 1239,
      "Ġthemselves": 1240,
      "Ġthee": 1241,
      "Ġsuff": 1242,
      "Ġground": 1243,
      "Ġfall": 1244,
      "Ġstood": 1245,
      "Ġadv": 1246,
      "ern": 1247,
      "Ġdear": 1248,
      "ĠTo": 1249,
      "oun": 1250,
      "ination": 1251,
      "vel": 1252,
      "Ġsoul": 1253,
      "Ġtold": 1254,
      "this": 1255,
      "Ġinterest": 1256,
      "ĠNow": 1257,
      "Ġalone": 1258,
      "Ġcried": 1259,
      "Ġland": 1260,
      "ĠGod": 1261,
      "Ġlo": 1262,
      "Ġasked": 1263,
      "Ġpoor": 1264,
      "fort": 1265,
      "Ġfeet": 1266,
      "Ġmeans": 1267,
      "Ġwoman": 1268,
      "Ġindeed": 1269,
      "side": 1270,
      "ready": 1271,
      "Ġgiven": 1272,
      "gin": 1273,
      "No": 1274,
      "ĠWhen": 1275,
      "ĠSo": 1276,
      "Ġfam": 1277,
      "ĠTarzan": 1278,
      "Ġwhite": 1279,
      "Ġpres": 1280,
      "ception": 1281,
      "Ġsk": 1282,
      "ution": 1283,
      "Ġaw": 1284,
      "no": 1285,
      "Ġdays": 1286,
      "onder": 1287,
      "irc": 1288,
      "oor": 1289,
      "Ġunderstand": 1290,
      "irt": 1291,
      "Ġhear": 1292,
      "ledge": 1293,
      "ief": 1294,
      "ters": 1295,
      "Ġsense": 1296,
      "Ġanything": 1297,
      "alth": 1298,
      "Ġele": 1299,
      "they": 1300,
      "Ġobser": 1301,
      "Ġsun": 1302,
      "ets": 1303,
      "Ġproper": 1304,
      "Ġtogether": 1305,
      "Ġgone": 1306,
      "Ġhel": 1307,
      "ances": 1308,
      "Ġbu": 1309,
      "Ġru": 1310,
      "Ġquestion": 1311,
      "ably": 1312,
      "read": 1313,
      "Ġvis": 1314,
      "Ġexper": 1315,
      "bed": 1316,
      "ec": 1317,
      "Ġwal": 1318,
      "ific": 1319,
      "Ġswe": 1320,
      "part": 1321,
      "what": 1322,
      "Ġter": 1323,
      "Ġmorning": 1324,
      "Ġexc": 1325,
      "Ġsound": 1326,
      "ides": 1327,
      "Ġdec": 1328,
      "ient": 1329,
      "ĠAt": 1330,
      "Ġreplied": 1331,
      "Ġhold": 1332,
      "Ġfin": 1333,
      "arge": 1334,
      "ogn": 1335,
      "otion": 1336,
      "Ġrather": 1337,
      "Ġdoubt": 1338,
      "Ġconsider": 1339,
      "Ġinv": 1340,
      "ural": 1341,
      "oney": 1342,
      "Ġcare": 1343,
      "ually": 1344,
      "Ġcontin": 1345,
      "ream": 1346,
      "Ġabs": 1347,
      "Ġwhose": 1348,
      "As": 1349,
      "Ġsent": 1350,
      "Ġneed": 1351,
      "Ġfur": 1352,
      "elt": 1353,
      "aven": 1354,
      "ey": 1355,
      "Ġsens": 1356,
      "racter": 1357,
      "mb": 1358,
      "az": 1359,
      "itions": 1360,
      "Ġgirl": 1361,
      "Ġbrought": 1362,
      "ĠSoc": 1363,
      "For": 1364,
      "Ġequ": 1365,
      "Ġnext": 1366,
      "ully": 1367,
      "ho": 1368,
      "aint": 1369,
      "Ġearth": 1370,
      "Ġgeneral": 1371,
      "Ġhundred": 1372,
      "Ġfear": 1373,
      "br": 1374,
      "abl": 1375,
      "Ġtaken": 1376,
      "empt": 1377,
      "ature": 1378,
      "iting": 1379,
      "Ġrece": 1380,
      "Ġclose": 1381,
      "Ġfire": 1382,
      "Ġrespect": 1383,
      "tern": 1384,
      "Ġleg": 1385,
      "ached": 1386,
      "like": 1387,
      "Ġelse": 1388,
      "ĠMrs": 1389,
      "ying": 1390,
      "ided": 1391,
      "Ġeye": 1392,
      "Ġexpress": 1393,
      "Ġes": 1394,
      "ped": 1395,
      "Ġfour": 1396,
      "Ġhuman": 1397,
      "Ġbook": 1398,
      "ants": 1399,
      "Ġgave": 1400,
      "ĠĠĠĠĠ": 1401,
      "uring": 1402,
      "AL": 1403,
      "where": 1404,
      "them": 1405,
      "Ġvoice": 1406,
      "Ġsecond": 1407,
      "Ġdef": 1408,
      "Yes": 1409,
      "Ġdiff": 1410,
      "Ġdeterm": 1411,
      "Ġmother": 1412,
      "Ġbehind": 1413,
      "Ġaff": 1414,
      "Ġshort": 1415,
      "ches": 1416,
      "Ġtran": 1417,
      "Ġtruth": 1418,
      "ĠHis": 1419,
      "Ġreal": 1420,
      "Ġview": 1421,
      "ĠĠĠĠĠĠĠĠĠ": 1422,
      "arch": 1423,
      "Ġ_": 1424,
      "ages": 1425,
      "ured": 1426,
      "ane": 1427,
      "Ġbed": 1428,
      "This": 1429,
      "Ġest": 1430,
      "ples": 1431,
      "Ġrequ": 1432,
      "would": 1433,
      "ards": 1434,
      "Ġchar": 1435,
      "Ġrun": 1436,
      "eng": 1437,
      "sequ": 1438,
      "Ġspir": 1439,
      "head": 1440,
      "Ġexpl": 1441,
      "ught": 1442,
      "iful": 1443,
      "pose": 1444,
      "though": 1445,
      "Ġeas": 1446,
      "ĠMiss": 1447,
      "pend": 1448,
      "Ġblood": 1449,
      "Ġcommon": 1450,
      "Th": 1451,
      "Ġeffect": 1452,
      "My": 1453,
      "Ġbra": 1454,
      "Ġleast": 1455,
      "use": 1456,
      "ek": 1457,
      "Ġpassed": 1458,
      "used": 1459,
      "Ġwhy": 1460,
      "CH": 1461,
      "Ġstrong": 1462,
      "Ġmor": 1463,
      "ĠSir": 1464,
      "ank": 1465,
      "ering": 1466,
      "Ġmanner": 1467,
      "ĠOn": 1468,
      "Ġbelieve": 1469,
      "dden": 1470,
      "Ġtimes": 1471,
      "ott": 1472,
      "Ġlearn": 1473,
      "their": 1474,
      "Ġstart": 1475,
      "wor": 1476,
      "Mr": 1477,
      "ized": 1478,
      "Ġexam": 1479,
      "Ġalready": 1480,
      "Ġleave": 1481,
      "Ġplay": 1482,
      "outh": 1483,
      "oint": 1484,
      "Ġidea": 1485,
      "pre": 1486,
      "iles": 1487,
      "vern": 1488,
      "Ġbur": 1489,
      "ĠNo": 1490,
      "Ġserv": 1491,
      "Ġsort": 1492,
      "app": 1493,
      "Ġfair": 1494,
      "ording": 1495,
      "TI": 1496,
      "ousand": 1497,
      "lish": 1498,
      "Ġlady": 1499,
      "cing": 1500,
      "fully": 1501,
      "under": 1502,
      "Ġins": 1503,
      "Ġcirc": 1504,
      "chan": 1505,
      "Ġcause": 1506,
      "Ġpain": 1507,
      "Ġgentleman": 1508,
      "Ġsight": 1509,
      "cha": 1510,
      "Ġpossess": 1511,
      "Ġmis": 1512,
      "str": 1513,
      "Ġprodu": 1514,
      "cend": 1515,
      "Ġsudden": 1516,
      "Ġstrange": 1517,
      "Ġdifferent": 1518,
      "hn": 1519,
      "Ġdro": 1520,
      "Ġpract": 1521,
      "Ġbelong": 1522,
      "Ġorder": 1523,
      "Ġcharacter": 1524,
      "Ġdr": 1525,
      "ĠAl": 1526,
      "Ġmod": 1527,
      "Ġdeep": 1528,
      "Ġpublic": 1529,
      "Ġstra": 1530,
      "Ġremem": 1531,
      "ivers": 1532,
      "Ġdiv": 1533,
      "Ġnear": 1534,
      "ĠDe": 1535,
      "Ġbes": 1536,
      "Ġalmost": 1537,
      "ĠAn": 1538,
      "iled": 1539,
      "Ġcreat": 1540,
      "Ġperfect": 1541,
      "Ġlooking": 1542,
      "laim": 1543,
      "asion": 1544,
      "Ġcol": 1545,
      "Ġsign": 1546,
      "itude": 1547,
      "ĠPro": 1548,
      "hil": 1549,
      "owed": 1550,
      "Ġpure": 1551,
      "ash": 1552,
      "were": 1553,
      "If": 1554,
      "Ġwish": 1555,
      "ĠCh": 1556,
      "Ġill": 1557,
      "ĠĠĠĠĠĠĠĠĠĠĠĠčĊ": 1558,
      "Ġwall": 1559,
      "Ġknowledge": 1560,
      "Ġsea": 1561,
      "ug": 1562,
      "orrow": 1563,
      "medi": 1564,
      "Ġreturned": 1565,
      "Ġgre": 1566,
      "ines": 1567,
      "ĠJo": 1568,
      "itted": 1569,
      "enty": 1570,
      "Ġappro": 1571,
      "Ġstru": 1572,
      "Ġparticul": 1573,
      "sc": 1574,
      "Ġanswer": 1575,
      "Ġbegan": 1576,
      "Ġfree": 1577,
      "overed": 1578,
      "ts": 1579,
      "bit": 1580,
      "Ġdev": 1581,
      "dis": 1582,
      "Why": 1583,
      "idence": 1584,
      "Ġlive": 1585,
      "Ġcontr": 1586,
      "ossible": 1587,
      "cted": 1588,
      "Ġmid": 1589,
      "iving": 1590,
      "ining": 1591,
      "Ġlow": 1592,
      "Ġed": 1593,
      "Ġhelp": 1594,
      "amp": 1595,
      "Ġmoney": 1596,
      "rit": 1597,
      "ressed": 1598,
      "who": 1599,
      "ror": 1600,
      "fess": 1601,
      "veral": 1602,
      "Ġlord": 1603,
      "Ġfelt": 1604,
      "Ġbusiness": 1605,
      "ize": 1606,
      "Ġappear": 1607,
      "ptain": 1608,
      "illed": 1609,
      "Ġnone": 1610,
      "isf": 1611,
      "Then": 1612,
      "uous": 1613,
      "Ġfig": 1614,
      "Ġfoot": 1615,
      "Ġnecessary": 1616,
      "Ġmer": 1617,
      "Ġaround": 1618,
      "ring": 1619,
      "ety": 1620,
      "ging": 1621,
      "ement": 1622,
      "uc": 1623,
      "Ġfriends": 1624,
      "Ġknown": 1625,
      "do": 1626,
      "ĠLord": 1627,
      "Ġjudge": 1628,
      "cont": 1629,
      "Ġoften": 1630,
      "will": 1631,
      "Ġcomple": 1632,
      "acc": 1633,
      "Ġperhaps": 1634,
      "Ġmine": 1635,
      "Ġsum": 1636,
      "hall": 1637,
      "Ġterm": 1638,
      "Ġworth": 1639,
      "yond": 1640,
      "ING": 1641,
      "Ġlost": 1642,
      "Ġtill": 1643,
      "ĠHow": 1644,
      "Ġlim": 1645,
      "oura": 1646,
      "ĠAll": 1647,
      "Ġpa": 1648,
      "Ġlarge": 1649,
      "Ġthousand": 1650,
      "night": 1651,
      "Ġbene": 1652,
      "Ġsleep": 1653,
      "Ġnumber": 1654,
      "They": 1655,
      "Ġsol": 1656,
      "Ġvill": 1657,
      "Ġconc": 1658,
      "Ġremark": 1659,
      "Ġopin": 1660,
      "Ġexperience": 1661,
      "ctor": 1662,
      "tered": 1663,
      "Ġfellow": 1664,
      "ges": 1665,
      "Ġwonder": 1666,
      "ices": 1667,
      "ĠMy": 1668,
      "ax": 1669,
      "Ġten": 1670,
      "ĠTHE": 1671,
      "ote": 1672,
      "come": 1673,
      "Ġmove": 1674,
      "ats": 1675,
      "ism": 1676,
      "Ġbring": 1677,
      "Ġcold": 1678,
      "Ġregard": 1679,
      "ĠEnglish": 1680,
      "rie": 1681,
      "upon": 1682,
      "Ġask": 1683,
      "Ġgovern": 1684,
      "pir": 1685,
      "Ġred": 1686,
      "Ġval": 1687,
      "ah": 1688,
      "IS": 1689,
      "Ġimag": 1690,
      "osition": 1691,
      "ship": 1692,
      "cons": 1693,
      "reed": 1694,
      "Ġdan": 1695,
      "OU": 1696,
      "Ġwife": 1697,
      "ames": 1698,
      "ister": 1699,
      "ics": 1700,
      "Ġyear": 1701,
      "Ġmerely": 1702,
      "ular": 1703,
      "Ġhur": 1704,
      "ased": 1705,
      "then": 1706,
      "mbl": 1707,
      "Ġtrans": 1708,
      "Ġforth": 1709,
      "ĠPr": 1710,
      "meric": 1711,
      "Ġson": 1712,
      "Ġpleasure": 1713,
      "When": 1714,
      "Ġpol": 1715,
      "Ġlead": 1716,
      "00": 1717,
      "ĠWell": 1718,
      "ouch": 1719,
      "Ġdut": 1720,
      "Ġchange": 1721,
      "mber": 1722,
      "usion": 1723,
      "With": 1724,
      "Ġlaws": 1725,
      "Ġclear": 1726,
      "Ġwit": 1727,
      "Ġtry": 1728,
      "Ġcomes": 1729,
      "ising": 1730,
      "Ġcoming": 1731,
      "OL": 1732,
      "Ġseveral": 1733,
      "TER": 1734,
      "asure": 1735,
      "Ġmark": 1736,
      "Ġpar": 1737,
      "ribut": 1738,
      "RO": 1739,
      "Ġbegin": 1740,
      "TH": 1741,
      "Ġinstant": 1742,
      "ee": 1743,
      "Ġcap": 1744,
      "let": 1745,
      "ĠWith": 1746,
      "Ġprom": 1747,
      "Ġbeyond": 1748,
      "Ġriver": 1749,
      "cience": 1750,
      "Ġpret": 1751,
      "ca": 1752,
      "Ġtem": 1753,
      "Ġused": 1754,
      "She": 1755,
      "Ġmeet": 1756,
      "off": 1757,
      "Ġtown": 1758,
      "Ġaccount": 1759,
      "How": 1760,
      "So": 1761,
      "when": 1762,
      "Ġpat": 1763,
      "Ġmaster": 1764,
      "hand": 1765,
      "une": 1766,
      "ney": 1767,
      "itting": 1768,
      "eth": 1769,
      "Ġbecome": 1770,
      "Ġnatural": 1771,
      "Ġvirt": 1772,
      "Ġsix": 1773,
      "cle": 1774,
      "gra": 1775,
      "Ġbar": 1776,
      "owers": 1777,
      "ĠDo": 1778,
      "Ġexpect": 1779,
      "Ġparts": 1780,
      "ior": 1781,
      "Ġwild": 1782,
      "Ġcent": 1783,
      "rem": 1784,
      "Ġquick": 1785,
      "iff": 1786,
      "dle": 1787,
      "Ġmus": 1788,
      "ĠBe": 1789,
      "Ġbad": 1790,
      "Ġable": 1791,
      "Ġsingle": 1792,
      "Ġwood": 1793,
      "Ġce": 1794,
      "Ġarm": 1795,
      "Ġplain": 1796,
      "can": 1797,
      "Ġtrou": 1798,
      "Ġletter": 1799,
      "Ġut": 1800,
      "Ġneither": 1801,
      "Ġmur": 1802,
      "Ġheld": 1803,
      "ountain": 1804,
      "----": 1805,
      "Ġbrother": 1806,
      "Ġgrow": 1807,
      "ibility": 1808,
      "well": 1809,
      "irm": 1810,
      "Ġprinciple": 1811,
      "Ġ3": 1812,
      "rel": 1813,
      "ases": 1814,
      "aughter": 1815,
      "Ġfurther": 1816,
      "Ġlau": 1817,
      "Ġheav": 1818,
      "she": 1819,
      "aj": 1820,
      "iment": 1821,
      "Ġstep": 1822,
      "ians": 1823,
      "light": 1824,
      "'m": 1825,
      "some": 1826,
      "ued": 1827,
      "ained": 1828,
      "Ġcity": 1829,
      "Ġaffect": 1830,
      "ead": 1831,
      "ences": 1832,
      "Now": 1833,
      "Ġcra": 1834,
      "Ġspirit": 1835,
      "bs": 1836,
      "ccess": 1837,
      "ength": 1838,
      "Ġproceed": 1839,
      "Ġfive": 1840,
      "ument": 1841,
      "Ġpast": 1842,
      "Ġlatter": 1843,
      "ĠOF": 1844,
      "Ġsuppose": 1845,
      "iously": 1846,
      "Ġpropos": 1847,
      "Ġmotion": 1848,
      "ĠJohn": 1849,
      "Ġdri": 1850,
      "utes": 1851,
      "olute": 1852,
      "Ġdidn": 1853,
      "wick": 1854,
      "bo": 1855,
      "iar": 1856,
      "port": 1857,
      "Ġmad": 1858,
      "Ġlist": 1859,
      "Ġfort": 1860,
      "Ġreally": 1861,
      "fl": 1862,
      "ones": 1863,
      "look": 1864,
      "II": 1865,
      "Ġpal": 1866,
      "airs": 1867,
      "vol": 1868,
      "Ġhair": 1869,
      "Ġrepresent": 1870,
      "uff": 1871,
      "ĠKing": 1872,
      "ert": 1873,
      "appe": 1874,
      "io": 1875,
      "just": 1876,
      "Ġsn": 1877,
      "Ġformer": 1878,
      "omen": 1879,
      "umst": 1880,
      "Ġacqu": 1881,
      "ĠEngland": 1882,
      "inite": 1883,
      "Ġbreat": 1884,
      "EL": 1885,
      "ours": 1886,
      "Ġkept": 1887,
      "Ġaccording": 1888,
      "more": 1889,
      "ection": 1890,
      "room": 1891,
      "arent": 1892,
      "Ġmaking": 1893,
      "inct": 1894,
      "Ġir": 1895,
      "Ġwatch": 1896,
      "Ġori": 1897,
      "Ġport": 1898,
      "pri": 1899,
      "nce": 1900,
      "Ġinqu": 1901,
      "could": 1902,
      "miss": 1903,
      "Ġanimals": 1904,
      "ster": 1905,
      "Ġbeautiful": 1906,
      "Ġlea": 1907,
      "ĠOf": 1908,
      "hys": 1909,
      "wise": 1910,
      "how": 1911,
      "Ġacross": 1912,
      "ĠCa": 1913,
      "Ġseems": 1914,
      "iter": 1915,
      "Ġmist": 1916,
      "Ġtowards": 1917,
      "Ġself": 1918,
      "ires": 1919,
      "Ġchildren": 1920,
      "Ġgold": 1921,
      "Ġtable": 1922,
      "ury": 1923,
      "bey": 1924,
      "val": 1925,
      "Ġconsequ": 1926,
      "pla": 1927,
      "Ġran": 1928,
      "Ġarms": 1929,
      "ĠĠĠĠĠĠĠĠĠĠĠĠĠčĊ": 1930,
      "Ġhappy": 1931,
      "Ġresult": 1932,
      "Ġsatisf": 1933,
      "Ġmakes": 1934,
      "Ġvar": 1935,
      "Ġroad": 1936,
      "ĠAmeric": 1937,
      "lled": 1938,
      "Ġpurpose": 1939,
      "Ġopinion": 1940,
      "Ġoccasion": 1941,
      "been": 1942,
      "ub": 1943,
      "Ġsit": 1944,
      "che": 1945,
      "Ġmag": 1946,
      "Ġfav": 1947,
      "Ġwrong": 1948,
      "Ġwindow": 1949,
      "Ġought": 1950,
      "Ġcondition": 1951,
      "Ġentire": 1952,
      "uss": 1953,
      "band": 1954,
      "Ġlad": 1955,
      "AS": 1956,
      "ĠĠĠĠĠĠĠĠĠĠĠĠĠĠ": 1957,
      "Ġarg": 1958,
      "'ve": 1959,
      "ivid": 1960,
      "Ġdeg": 1961,
      "Ġdraw": 1962,
      "LE": 1963,
      "Ġconcept": 1964,
      "oom": 1965,
      "Ġmonth": 1966,
      "inary": 1967,
      "Ġdream": 1968,
      "Ġremember": 1969,
      "Ġprison": 1970,
      "Ġcourt": 1971,
      "Ġsurpr": 1972,
      "dom": 1973,
      "Ġsweet": 1974,
      "ference": 1975,
      "Ġdest": 1976,
      "Ġpriv": 1977,
      "Ġorigin": 1978,
      "Ġlength": 1979,
      "Ġpretty": 1980,
      "ening": 1981,
      "Ġline": 1982,
      "ush": 1983,
      "wards": 1984,
      "go": 1985,
      "got": 1986,
      "Ġstud": 1987,
      "Ġsecret": 1988,
      "Ġwis": 1989,
      "Ex": 1990,
      "Ġsch": 1991,
      "rance": 1992,
      "Ġbreak": 1993,
      "Ġauth": 1994,
      "ically": 1995,
      "els": 1996,
      "Ġslow": 1997,
      "tw": 1998,
      "Ġcut": 1999,
      "ium": 2000,
      "Ġsto": 2001,
      "Ġquar": 2002,
      "Ġbound": 2003,
      "Ġfine": 2004,
      "angu": 2005,
      "Ġdanger": 2006,
      "osop": 2007,
      "cient": 2008,
      "Ġtalk": 2009,
      "ront": 2010,
      "ondon": 2011,
      "Ġfamily": 2012,
      "Ġexistence": 2013,
      "Oh": 2014,
      "ĠCl": 2015,
      "Ġpeace": 2016,
      "Ġstri": 2017,
      "Ġape": 2018,
      "Ġready": 2019,
      "ists": 2020,
      "At": 2021,
      "Ġheaven": 2022,
      "Ġship": 2023,
      "Ġprov": 2024,
      "Ġage": 2025,
      "ots": 2026,
      "ungle": 2027,
      "into": 2028,
      "Ġalthough": 2029,
      "should": 2030,
      "gain": 2031,
      "Ġlie": 2032,
      "Ġhast": 2033,
      "time": 2034,
      "tended": 2035,
      "Ġdog": 2036,
      "Ġglad": 2037,
      "Ġparticular": 2038,
      "Ġshad": 2039,
      "ustom": 2040,
      "Ġhig": 2041,
      "Ġsometimes": 2042,
      "ament": 2043,
      "text": 2044,
      "ony": 2045,
      "Ġden": 2046,
      "wered": 2047,
      "Ġpay": 2048,
      "ĠAr": 2049,
      "Ġobjects": 2050,
      "Ġgen": 2051,
      "Ġmouth": 2052,
      "ploy": 2053,
      "Ġlate": 2054,
      "Ġyourself": 2055,
      "Ġquiet": 2056,
      "about": 2057,
      "rough": 2058,
      "Ġcommand": 2059,
      "Ġcry": 2060,
      "Ġpie": 2061,
      "Ġhours": 2062,
      "ified": 2063,
      "kes": 2064,
      "lect": 2065,
      "tained": 2066,
      "Ġdirect": 2067,
      "mp": 2068,
      "ĠQ": 2069,
      "gl": 2070,
      "ume": 2071,
      "Ġintell": 2072,
      "ls": 2073,
      "Ġsuper": 2074,
      "ĠHere": 2075,
      "co": 2076,
      "Ġherself": 2077,
      "ĠOne": 2078,
      "Ġeverything": 2079,
      "Ġlaid": 2080,
      "Ġmain": 2081,
      "Ġlonger": 2082,
      "IC": 2083,
      "Ġ[": 2084,
      "Ġsqu": 2085,
      "ĠThese": 2086,
      "ĠLet": 2087,
      "reg": 2088,
      "Ġnoble": 2089,
      "Ġpray": 2090,
      "Ġimmedi": 2091,
      "ancy": 2092,
      "ues": 2093,
      "Ġdeal": 2094,
      "Of": 2095,
      "Ġain": 2096,
      "ickwick": 2097,
      "Ġattempt": 2098,
      "Ġrose": 2099,
      "Ġconce": 2100,
      "Ġfif": 2101,
      "Ġbear": 2102,
      "Ġprinciples": 2103,
      "ilt": 2104,
      "Ġgreater": 2105,
      "icate": 2106,
      "Ġimport": 2107,
      "Ġhath": 2108,
      "Ġsuccess": 2109,
      "Ġled": 2110,
      "resh": 2111,
      "ĠBy": 2112,
      "Ġwomen": 2113,
      "Ġpict": 2114,
      "Ġarri": 2115,
      "Ġsoft": 2116,
      "Ġfollowed": 2117,
      "Ġaccom": 2118,
      "Ġtwenty": 2119,
      "osite": 2120,
      "Ġsubst": 2121,
      "verse": 2122,
      "Ġdelight": 2123,
      "Ġscar": 2124,
      "house": 2125,
      "Ġfeeling": 2126,
      "Ġhorse": 2127,
      "Ġpen": 2128,
      "ĠUn": 2129,
      "ze": 2130,
      "Ġfal": 2131,
      "ND": 2132,
      "Ġlab": 2133,
      "urch": 2134,
      "Ġcast": 2135,
      "Ġfra": 2136,
      "Not": 2137,
      "mat": 2138,
      "ption": 2139,
      "Ġfigure": 2140,
      "ori": 2141,
      "cies": 2142,
      "Ġconcl": 2143,
      "AP": 2144,
      "usband": 2145,
      "Ġexcept": 2146,
      "Ġcorn": 2147,
      "Ġaction": 2148,
      "Ġunivers": 2149,
      "Ġsla": 2150,
      "Ġauthor": 2151,
      "Ġdescri": 2152,
      "Ġve": 2153,
      "Ġsaying": 2154,
      "Ġparty": 2155,
      "Ġevening": 2156,
      "tic": 2157,
      "Ġenem": 2158,
      "Ġspoke": 2159,
      "ishment": 2160,
      "Ġincl": 2161,
      "Ġconstit": 2162,
      "Ġduring": 2163,
      "ĠNor": 2164,
      "IL": 2165,
      "Ġgovernment": 2166,
      "Ġear": 2167,
      "Ġduty": 2168,
      ">>": 2169,
      "Ġevil": 2170,
      "Ġbright": 2171,
      "your": 2172,
      "ills": 2173,
      "Ġwarn": 2174,
      "than": 2175,
      "inter": 2176,
      "Ġdie": 2177,
      "ĠIs": 2178,
      "ushed": 2179,
      "Ġago": 2180,
      "oose": 2181,
      "Ġhot": 2182,
      "AT": 2183,
      "'re": 2184,
      "ev": 2185,
      "Ġappeared": 2186,
      "said": 2187,
      "ump": 2188,
      "rible": 2189,
      "Ġdesire": 2190,
      "Ġforce": 2191,
      "rench": 2192,
      "Ġcal": 2193,
      "ĠPickwick": 2194,
      "Ġfool": 2195,
      "Ġhist": 2196,
      "Ġoffic": 2197,
      "Ġmoved": 2198,
      "Ġmoral": 2199,
      "Ġinfl": 2200,
      "icult": 2201,
      "ĠNot": 2202,
      "ighb": 2203,
      "que": 2204,
      "itiz": 2205,
      "Ġcircumst": 2206,
      "ises": 2207,
      "Ġimpossible": 2208,
      "Ġjungle": 2209,
      "attle": 2210,
      "Ġchance": 2211,
      "Ġho": 2212,
      "Ġvillage": 2213,
      "Ġheavy": 2214,
      "ift": 2215,
      "cond": 2216,
      "Ġcertainly": 2217,
      "Wh": 2218,
      "rid": 2219,
      "Ġcarried": 2220,
      "Ġbeast": 2221,
      "Ġbelow": 2222,
      "Ġchair": 2223,
      "Ġbecame": 2224,
      "aged": 2225,
      "Ġdistance": 2226,
      "Ġcoll": 2227,
      "hood": 2228,
      "sm": 2229,
      "Ġabsolute": 2230,
      "IR": 2231,
      "arily": 2232,
      "pping": 2233,
      "ĠĠĠĠĠĠĠĠĠĠĠĠĠĠĠĠĠĠ": 2234,
      "Ġ18": 2235,
      "Ġforward": 2236,
      "Ġeff": 2237,
      "ision": 2238,
      "ius": 2239,
      "ext": 2240,
      "Ġcomplete": 2241,
      "iling": 2242,
      "Ġsoci": 2243,
      "Ġwhis": 2244,
      "Ġdem": 2245,
      "ĠLondon": 2246,
      "Ġreceived": 2247,
      "Ġtaking": 2248,
      "kn": 2249,
      "Ġunderstanding": 2250,
      "Let": 2251,
      "Ġanswered": 2252,
      "Ġfight": 2253,
      "AM": 2254,
      "Ġgreen": 2255,
      "owing": 2256,
      "know": 2257,
      "ĠYes": 2258,
      "spe": 2259,
      "Ġstory": 2260,
      "henomen": 2261,
      "Ġvirtue": 2262,
      "Ġbird": 2263,
      "Ġmed": 2264,
      "Ġentered": 2265,
      "Ġwon": 2266,
      "Ġattention": 2267,
      "iant": 2268,
      "Ġconn": 2269,
      "Ġbeneath": 2270,
      "great": 2271,
      "Ġcre": 2272,
      "Ġbit": 2273,
      "Ġlater": 2274,
      "ries": 2275,
      "Ġemploy": 2276,
      "face": 2277,
      "Ġpaper": 2278,
      "ED": 2279,
      "pan": 2280,
      "Ġclass": 2281,
      "ray": 2282,
      "ĠSam": 2283,
      "ibly": 2284,
      "ask": 2285,
      "ounded": 2286,
      "Ġ4": 2287,
      "ny": 2288,
      "Ġchief": 2289,
      "Ġconception": 2290,
      "oved": 2291,
      "Ġer": 2292,
      "Ġcop": 2293,
      "Ġfront": 2294,
      "Ġreached": 2295,
      "des": 2296,
      "ected": 2297,
      "cell": 2298,
      "Ġstruck": 2299,
      "Ġoccur": 2300,
      "has": 2301,
      "Ġyouth": 2302,
      "hilosop": 2303,
      "Ġwat": 2304,
      "gu": 2305,
      "ency": 2306,
      "after": 2307,
      "ĠWhy": 2308,
      "erv": 2309,
      "ĠInd": 2310,
      "Ġfalse": 2311,
      "aste": 2312,
      "oe": 2313,
      "arr": 2314,
      "Ġtreat": 2315,
      "Ġtree": 2316,
      "Ġdoing": 2317,
      "Ġeng": 2318,
      "Ġmighty": 2319,
      "ational": 2320,
      "Ġcompan": 2321,
      "Ġemb": 2322,
      "Ġcouldn": 2323,
      "Ġsugg": 2324,
      "Ġlips": 2325,
      "Ġbott": 2326,
      "Ġknows": 2327,
      "pass": 2328,
      "Ġrepe": 2329,
      "Ġmem": 2330,
      "Ġprob": 2331,
      "Ġhusband": 2332,
      "orm": 2333,
      "Ġfast": 2334,
      "Ġcompany": 2335,
      "Ġcogn": 2336,
      "Ġcarry": 2337,
      "Ġnearly": 2338,
      "pers": 2339,
      "unity": 2340,
      "gan": 2341,
      "Ġproperty": 2342,
      "iol": 2343,
      "Ġda": 2344,
      "rad": 2345,
      "ĠĠĠĠĠĠĠĠĠĠĠĠĠĠčĊ": 2346,
      "Ġdaughter": 2347,
      "Ġsend": 2348,
      "Ġpost": 2349,
      "again": 2350,
      "Ġmiles": 2351,
      "ively": 2352,
      "ental": 2353,
      "Ġbeauty": 2354,
      "sy": 2355,
      "Ġguard": 2356,
      "stem": 2357,
      "uge": 2358,
      "pid": 2359,
      "bel": 2360,
      "Ġfollowing": 2361,
      ").": 2362,
      "Be": 2363,
      "IUS": 2364,
      "spect": 2365,
      "Ġstay": 2366,
      "before": 2367,
      "ler": 2368,
      "oured": 2369,
      "iding": 2370,
      "while": 2371,
      "IO": 2372,
      "ixed": 2373,
      "Ġtrees": 2374,
      "Ġinn": 2375,
      "eness": 2376,
      "athe": 2377,
      "CT": 2378,
      "Ġcomfort": 2379,
      "Ġdirection": 2380,
      "tle": 2381,
      "ingly": 2382,
      "Ġsole": 2383,
      "arer": 2384,
      "Ġtop": 2385,
      "every": 2386,
      "Ġsafe": 2387,
      "Ġanimal": 2388,
      "Ġvisit": 2389,
      "dd": 2390,
      "Ġsuddenly": 2391,
      "All": 2392,
      "',": 2393,
      "Ġsav": 2394,
      "imp": 2395,
      "itten": 2396,
      "Ġyes": 2397,
      "atson": 2398,
      "fra": 2399,
      "Ġreach": 2400,
      "ored": 2401,
      "Ġav": 2402,
      "uses": 2403,
      "bet": 2404,
      "aded": 2405,
      "long": 2406,
      "ories": 2407,
      "Ġstat": 2408,
      "By": 2409,
      "Is": 2410,
      "mn": 2411,
      "Ġbod": 2412,
      "Ġfing": 2413,
      "Ġrich": 2414,
      "Ġstraight": 2415,
      "bled": 2416,
      "fer": 2417,
      "Ġplan": 2418,
      "Ġscience": 2419,
      "Ġsuffic": 2420,
      "ike": 2421,
      "ĠWh": 2422,
      "Ġbig": 2423,
      "joy": 2424,
      "Ġprot": 2425,
      "Ġsepar": 2426,
      "mit": 2427,
      "ĠHer": 2428,
      "..": 2429,
      "anced": 2430,
      "Ġconv": 2431,
      "Ġhonour": 2432,
      "Ġmountain": 2433,
      "Ġourselves": 2434,
      "Ġsilence": 2435,
      "En": 2436,
      "range": 2437,
      "pond": 2438,
      "Ġcoun": 2439,
      "ned": 2440,
      "orry": 2441,
      "Ġpractical": 2442,
      "Ġbuild": 2443,
      "Ġpursu": 2444,
      "Ġdu": 2445,
      "Ġlangu": 2446,
      "rief": 2447,
      "ested": 2448,
      "othes": 2449,
      "imate": 2450,
      "**": 2451,
      "Ġphilosop": 2452,
      "ternal": 2453,
      "St": 2454,
      "never": 2455,
      "Ġcross": 2456,
      "ils": 2457,
      "Ġobserved": 2458,
      "Ġeasy": 2459,
      "found": 2460,
      "Ġimm": 2461,
      "Ġsold": 2462,
      "ourage": 2463,
      "Ġtrouble": 2464,
      "sub": 2465,
      "these": 2466,
      "Ġgard": 2467,
      "ĠSc": 2468,
      "cise": 2469,
      "Here": 2470,
      "reedom": 2471,
      "good": 2472,
      "Ġord": 2473,
      "Ġthird": 2474,
      "only": 2475,
      "rist": 2476,
      "ously": 2477,
      "ounds": 2478,
      "arm": 2479,
      "Ġliving": 2480,
      "gy": 2481,
      "present": 2482,
      "gged": 2483,
      "oid": 2484,
      "Ġwhatever": 2485,
      "ech": 2486,
      "ĠĠĠĠĠĠĠĠĠĠĠĠĠĠĠĠĠĠĠĠĠĠĠĠĠĠĠĠĠĠĠĠĠĠĠĠĠĠĠĠĠĠĠĠĠĠĠĠĠĠĠĠĠĠĠĠĠĠĠĠĠĠĠĠ": 2487,
      "Ġ`": 2488,
      "Ġopened": 2489,
      "Ġnote": 2490,
      "Ġjoy": 2491,
      "iction": 2492,
      "Ġtrust": 2493,
      "formation": 2494,
      "Do": 2495,
      "ĠThus": 2496,
      "Ġpresence": 2497,
      "Ġopposite": 2498,
      "Ġfaith": 2499,
      "Ġstreng": 2500,
      "Ġneighb": 2501,
      "place": 2502,
      "Ġtried": 2503,
      "Ġtouch": 2504,
      "zen": 2505,
      "Ġraised": 2506,
      "being": 2507,
      "Ġcab": 2508,
      "law": 2509,
      "Ġcreature": 2510,
      "Ġposition": 2511,
      "Ġschool": 2512,
      "Ġstreet": 2513,
      "His": 2514,
      "Ġmention": 2515,
      "umed": 2516,
      "Ġexpression": 2517,
      "Ġcrow": 2518,
      "ator": 2519,
      "ckon": 2520,
      "Ġintu": 2521,
      "little": 2522,
      "Ġlaugh": 2523,
      "kind": 2524,
      "Ġhang": 2525,
      "ET": 2526,
      "ĠPer": 2527,
      "together": 2528,
      "ellow": 2529,
      "Ġkill": 2530,
      "say": 2531,
      "olog": 2532,
      "Ġhealth": 2533,
      "ĠFrench": 2534,
      "fessor": 2535,
      "Ġrelation": 2536,
      "Ġfloor": 2537,
      "Ġplease": 2538,
      "amed": 2539,
      "rates": 2540,
      "Ġsave": 2541,
      "Ġexact": 2542,
      "Ġund": 2543,
      "riage": 2544,
      "Ġhardly": 2545,
      "irty": 2546,
      "eed": 2547,
      "Ġestabl": 2548,
      "IA": 2549,
      "ric": 2550,
      "Where": 2551,
      "ĠX": 2552,
      "Ġthoughts": 2553,
      "Ġoccup": 2554,
      "rer": 2555,
      "enger": 2556,
      "ok": 2557,
      "cape": 2558,
      "Ġcontrary": 2559,
      "posed": 2560,
      "Ġminutes": 2561,
      "certain": 2562,
      "oris": 2563,
      "ĠWatson": 2564,
      "icked": 2565,
      "Ġpriori": 2566,
      "Ġvol": 2567,
      "Ġwide": 2568,
      "Ġscarce": 2569,
      "ression": 2570,
      "Ġrule": 2571,
      "ords": 2572,
      "Ġphenomen": 2573,
      "Ġdrew": 2574,
      "lt": 2575,
      "Ġbreath": 2576,
      "Ġobl": 2577,
      "teen": 2578,
      "Ġwanted": 2579,
      "cap": 2580,
      "Ġadded": 2581,
      "Ġfield": 2582,
      "Ġrock": 2583,
      "ocked": 2584,
      "ear": 2585,
      "Ġwarri": 2586,
      "ishing": 2587,
      "Ġjustice": 2588,
      "ĠCaptain": 2589,
      "iculty": 2590,
      "such": 2591,
      "Ġsad": 2592,
      "Ġindivid": 2593,
      "action": 2594,
      "Ġoffice": 2595,
      "Ġann": 2596,
      "unk": 2597,
      "Ġpleasant": 2598,
      "Ġpoet": 2599,
      "comm": 2600,
      "Ġbecom": 2601,
      "down": 2602,
      "Ġcontain": 2603,
      "Ġbran": 2604,
      "Ġproof": 2605,
      "Ġhistory": 2606,
      "een": 2607,
      "lling": 2608,
      "apers": 2609,
      "Ġshar": 2610,
      ".,": 2611,
      "Ġmiss": 2612,
      "ication": 2613,
      "Ġweak": 2614,
      "Ġsimple": 2615,
      "bers": 2616,
      "ingu": 2617,
      "Ġsmile": 2618,
      "urope": 2619,
      "Ġmoon": 2620,
      "whe": 2621,
      "Ġhide": 2622,
      "ombey": 2623,
      "Ġpersons": 2624,
      "Ġeight": 2625,
      "Ġfut": 2626,
      "ĠMar": 2627,
      "rect": 2628,
      "ilar": 2629,
      "ĠCle": 2630,
      "Ġcases": 2631,
      "Ġast": 2632,
      "Ġgod": 2633,
      "Ġneg": 2634,
      "through": 2635,
      "dist": 2636,
      "Ġcru": 2637,
      "Ġspo": 2638,
      "Ġenc": 2639,
      "even": 2640,
      "Ġsystem": 2641,
      "aff": 2642,
      "ĠJim": 2643,
      "Ġgoes": 2644,
      "Ġapart": 2645,
      "pirical": 2646,
      "ĠBr": 2647,
      "Ġbooks": 2648,
      "Ġexample": 2649,
      "Ġdrink": 2650,
      "Ġver": 2651,
      "isl": 2652,
      "Ġearly": 2653,
      "Ġrecogn": 2654,
      "Ġgrave": 2655,
      "Ġequal": 2656,
      "uct": 2657,
      "alled": 2658,
      "uded": 2659,
      "Ġlearned": 2660,
      "Ġprev": 2661,
      ",--": 2662,
      "ST": 2663,
      "inner": 2664,
      "rupt": 2665,
      "Ġwalk": 2666,
      "ĠĠĠĠĠĠĠĠĠĠĠĠĠĠĠčĊ": 2667,
      "Ġentirely": 2668,
      "itive": 2669,
      "Ġeasily": 2670,
      "Ġdi": 2671,
      "position": 2672,
      "Ġfurn": 2673,
      "inc": 2674,
      "Ġbell": 2675,
      "cause": 2676,
      "Ġmeant": 2677,
      "Ġconvers": 2678,
      "ĠNew": 2679,
      "bles": 2680,
      "Ġhappened": 2681,
      "Ġcontinued": 2682,
      "RE": 2683,
      "ĠPar": 2684,
      "Ġdesp": 2685,
      "Ġign": 2686,
      "happ": 2687,
      "Enter": 2688,
      "much": 2689,
      "rop": 2690,
      "Ġwalked": 2691,
      "pet": 2692,
      "Ġang": 2693,
      "ouses": 2694,
      "Ġphys": 2695,
      "Ġhun": 2696,
      "Ġdegree": 2697,
      "Ġess": 2698,
      "Ġimmediately": 2699,
      "Ġfood": 2700,
      "arrow": 2701,
      "Ġdied": 2702,
      "ĠOr": 2703,
      "rant": 2704,
      "Ġdepart": 2705,
      "itation": 2706,
      "Ġpun": 2707,
      "Ġgrace": 2708,
      "ĠFrom": 2709,
      "Ġsake": 2710,
      "Ġslight": 2711,
      "Ġprep": 2712,
      "Ġescape": 2713,
      "Ġdifficult": 2714,
      "requ": 2715,
      "Ġsal": 2716,
      "Ġappl": 2717,
      "Ġcrowd": 2718,
      "On": 2719,
      "Ġbeside": 2720,
      "Ġinflu": 2721,
      "erman": 2722,
      "Ġpock": 2723,
      "iety": 2724,
      "iod": 2725,
      "oes": 2726,
      "ĠWill": 2727,
      "ĠFl": 2728,
      "Ġspace": 2729,
      "Ġtaste": 2730,
      "Ġjour": 2731,
      "Ġthinking": 2732,
      "Ġstanding": 2733,
      "Ġhop": 2734,
      "pper": 2735,
      "Ġbreast": 2736,
      "Ġhonest": 2737,
      "set": 2738,
      "somet": 2739,
      "Ġstopped": 2740,
      "Ġuniversal": 2741,
      "Ġhung": 2742,
      "Ġprocess": 2743,
      "may": 2744,
      "Ġgrand": 2745,
      "Ġtears": 2746,
      "fraid": 2747,
      "Who": 2748,
      "thought": 2749,
      "osing": 2750,
      "Ġboat": 2751,
      "umber": 2752,
      "cial": 2753,
      "Ġviol": 2754,
      "ails": 2755,
      "Ġetext": 2756,
      "Ġclaim": 2757,
      "ont": 2758,
      "Ġlived": 2759,
      "Ġshut": 2760,
      "Ġslowly": 2761,
      "Ġsharp": 2762,
      "Ġprivate": 2763,
      "Ġstrength": 2764,
      "Ġglass": 2765,
      "Ġban": 2766,
      "Ġjo": 2767,
      "new": 2768,
      "Ġwise": 2769,
      "Ġcorner": 2770,
      "iers": 2771,
      "Ġmaj": 2772,
      "Ġgentlemen": 2773,
      "aly": 2774,
      "min": 2775,
      "Ġpred": 2776,
      "KING": 2777,
      "Ġlies": 2778,
      "ourse": 2779,
      "reme": 2780,
      "Ġstone": 2781,
      "Ġdim": 2782,
      "hold": 2783,
      "Ġtong": 2784,
      "ites": 2785,
      "ashion": 2786,
      "Ġfreedom": 2787,
      "Ġears": 2788,
      "Ġappearance": 2789,
      "Ġsick": 2790,
      "Ġdread": 2791,
      "Ġbroken": 2792,
      "Ġmusic": 2793,
      "Ġpath": 2794,
      "ĠTO": 2795,
      "pit": 2796,
      "Ġnecessity": 2797,
      "Ġjudgement": 2798,
      "Come": 2799,
      "Ġeffort": 2800,
      "Ġcitiz": 2801,
      "Ġmiddle": 2802,
      "pon": 2803,
      "CE": 2804,
      "udge": 2805,
      "mbers": 2806,
      "Ġinstance": 2807,
      "Ġbroke": 2808,
      "Ġsearch": 2809,
      "LA": 2810,
      "APTER": 2811,
      "Ġthick": 2812,
      "Ġneck": 2813,
      "Ġfun": 2814,
      "ĠSome": 2815,
      "Ġhappiness": 2816,
      "ruct": 2817,
      "Ġwouldn": 2818,
      "ĠHel": 2819,
      "Ġminute": 2820,
      "Ġplaces": 2821,
      "nat": 2822,
      "Ġlives": 2823,
      "Ġspot": 2824,
      "Ġboys": 2825,
      "cent": 2826,
      "Ġhy": 2827,
      "tr": 2828,
      "fit": 2829,
      "asp": 2830,
      "ĠDombey": 2831,
      "Ġwrite": 2832,
      "Ġburn": 2833,
      "bing": 2834,
      "without": 2835,
      "Ġservice": 2836,
      "Ġcloud": 2837,
      "Ġforest": 2838,
      "Ġ5": 2839,
      "ĠĠĠĠĠĠĠĠĠĠĠĠĠĠĠĠĠĠĠĠĠĠĠĠĠĠĠĠĠĠĠĠĠĠĠĠĠĠĠĠĠĠĠĠĠĠĠĠ": 2840,
      "Ġbroad": 2841,
      "hor": 2842,
      "Ġfat": 2843,
      "aries": 2844,
      "stood": 2845,
      "Ġliber": 2846,
      "Ġrapid": 2847,
      "Ġfresh": 2848,
      "ĠEurope": 2849,
      "Ġbless": 2850,
      "antage": 2851,
      "ĠEd": 2852,
      "Ġenjoy": 2853,
      "rees": 2854,
      "fast": 2855,
      "Ġdifference": 2856,
      "hest": 2857,
      "ify": 2858,
      "Ġplaced": 2859,
      "hard": 2860,
      "ager": 2861,
      "Ġchurch": 2862,
      "acy": 2863,
      "itary": 2864,
      "Ġmass": 2865,
      "might": 2866,
      "ĠRe": 2867,
      "road": 2868,
      "two": 2869,
      "Ġstarted": 2870,
      "cially": 2871,
      "Ġcompl": 2872,
      "formed": 2873,
      "Ġremained": 2874,
      "Ġty": 2875,
      "ley": 2876,
      "Ġspeech": 2877,
      "Ġisland": 2878,
      "antly": 2879,
      "Ġrul": 2880,
      "Ġdifficulty": 2881,
      "Ġfright": 2882,
      "Ġperce": 2883,
      "Ġinstead": 2884,
      "ham": 2885,
      "Ġcat": 2886,
      "aled": 2887,
      "ĠYet": 2888,
      "sembl": 2889,
      "idered": 2890,
      "Ġpiece": 2891,
      "back": 2892,
      "Ġcou": 2893,
      "Ġfamil": 2894,
      "Ġsorrow": 2895,
      "oon": 2896,
      "Ġfilled": 2897,
      "urd": 2898,
      "retched": 2899,
      "Ġpra": 2900,
      "Ġforgot": 2901,
      "Ġrid": 2902,
      "rodu": 2903,
      "Ġagree": 2904,
      "Ġdeser": 2905,
      "Ġconcern": 2906,
      "reason": 2907,
      "icated": 2908,
      "ruction": 2909,
      "Ġlikely": 2910,
      "liver": 2911,
      "Ġdetermined": 2912,
      "sion": 2913,
      "rill": 2914,
      "Ġmagn": 2915,
      "must": 2916,
      "Ġsociety": 2917,
      "dra": 2918,
      "Ġoutside": 2919,
      "Ġcamp": 2920,
      "Ġmeaning": 2921,
      "rif": 2922,
      "orted": 2923,
      "estions": 2924,
      "ĠFrance": 2925,
      "Ġreve": 2926,
      "Ġfle": 2927,
      "ĠCar": 2928,
      "Ġvict": 2929,
      "Ġreckon": 2930,
      "Ġutter": 2931,
      "think": 2932,
      "Ġletters": 2933,
      "irth": 2934,
      "THE": 2935,
      "jo": 2936,
      "alley": 2937,
      "Ġcomb": 2938,
      "BER": 2939,
      "Ġsavage": 2940,
      "Ġforms": 2941,
      "cher": 2942,
      "ĠZ": 2943,
      "reet": 2944,
      "Ġpowers": 2945,
      "Ġstranger": 2946,
      "Ġi": 2947,
      "Ġconscious": 2948,
      "pes": 2949,
      "ification": 2950,
      "Ġargument": 2951,
      "pered": 2952,
      "Ġenter": 2953,
      "see": 2954,
      "Ġexer": 2955,
      "Ġbeginning": 2956,
      "Ġwritten": 2957,
      "Ġtemper": 2958,
      "Ġearn": 2959,
      "Ġterms": 2960,
      "Ġweight": 2961,
      "IT": 2962,
      "Ġbattle": 2963,
      "Ġmut": 2964,
      "Ġways": 2965,
      "car": 2966,
      "Ġwait": 2967,
      "Ġmemory": 2968,
      "ivil": 2969,
      "rank": 2970,
      "Ġcontent": 2971,
      "ARD": 2972,
      "leep": 2973,
      "Ġweek": 2974,
      "roy": 2975,
      "aked": 2976,
      "Ġbodies": 2977,
      "UT": 2978,
      "Ġsupposed": 2979,
      "Ġlanguage": 2980,
      "gress": 2981,
      "Ġcustom": 2982,
      "ĠMan": 2983,
      "Ġaccept": 2984,
      "Ġintellig": 2985,
      "known": 2986,
      "ĠOur": 2987,
      "Ġcircumstances": 2988,
      "isted": 2989,
      "dered": 2990,
      "Ġant": 2991,
      "Ġafraid": 2992,
      "heart": 2993,
      "Ġhabit": 2994,
      "Ġdepend": 2995,
      "Ġrace": 2996,
      "Ġwarm": 2997,
      "himself": 2998,
      "Ġforget": 2999,
      "Ġnews": 3000,
      "another": 3001,
      "Ġchamber": 3002,
      "Ġgaz": 3003,
      "Ġdoll": 3004,
      "Ġprove": 3005,
      "eneral": 3006,
      "Ġborn": 3007,
      "raph": 3008,
      "respond": 3009,
      "Ġnation": 3010,
      "necess": 3011,
      "Ġdrawn": 3012,
      "inst": 3013,
      "Ġancient": 3014,
      "Ġgenerally": 3015,
      "Ġfuture": 3016,
      "oly": 3017,
      "uted": 3018,
      "Ġpresently": 3019,
      "Ġmater": 3020,
      "Ġcaught": 3021,
      "Ġgetting": 3022,
      "Ġshowed": 3023,
      "Ġdom": 3024,
      "Ġpecul": 3025,
      "soci": 3026,
      "Ġsitting": 3027,
      "Ġfly": 3028,
      "ork": 3029,
      "orge": 3030,
      "ESS": 3031,
      "Ġhuge": 3032,
      "Ġformed": 3033,
      "Ġsilent": 3034,
      "ĠCon": 3035,
      "Ġinfinite": 3036,
      "ĠWhere": 3037,
      "rang": 3038,
      "iced": 3039,
      "Ġappre": 3040,
      "Ġmonths": 3041,
      "uz": 3042,
      "Ġharm": 3043,
      "cceed": 3044,
      "Ġperiod": 3045,
      "Ġmovement": 3046,
      "UR": 3047,
      "Ġdep": 3048,
      "Ġbull": 3049,
      "Ġfier": 3050,
      "ĠEvery": 3051,
      "Ġignor": 3052,
      "Ġfem": 3053,
      "Ġintuition": 3054,
      "idently": 3055,
      "Ġfifty": 3056,
      "tis": 3057,
      "Ġwand": 3058,
      "ĠStr": 3059,
      "Ġworse": 3060,
      "Ġconsidered": 3061,
      "eav": 3062,
      "Ġscene": 3063,
      "count": 3064,
      "ĠCom": 3065,
      "An": 3066,
      "AND": 3067,
      "Ġbow": 3068,
      "Ġloved": 3069,
      "standing": 3070,
      "Ġdiscovered": 3071,
      "Ġhigher": 3072,
      "Ġexcell": 3073,
      "Ġdropped": 3074,
      "EAR": 3075,
      "ouched": 3076,
      "Ġeat": 3077,
      "Ġunless": 3078,
      "Ġ17": 3079,
      "Ġfro": 3080,
      "Ġnames": 3081,
      "vey": 3082,
      "Ġsimilar": 3083,
      "Ġempirical": 3084,
      "Ġconditions": 3085,
      "morrow": 3086,
      "Ġpaid": 3087,
      "ĠGerman": 3088,
      "Ġgreatest": 3089,
      "rue": 3090,
      "Ġspring": 3091,
      "Ġgarden": 3092,
      "Ġshook": 3093,
      "things": 3094,
      "Ġgives": 3095,
      "enced": 3096,
      "Ġspeaking": 3097,
      "Ġpassage": 3098,
      "Ġrain": 3099,
      "Ġwalls": 3100,
      "ests": 3101,
      "aul": 3102,
      "Ġturning": 3103,
      "Ġincre": 3104,
      "Ġquickly": 3105,
      "Ġheads": 3106,
      "cr": 3107,
      "Ġblue": 3108,
      "ĠDoctor": 3109,
      "EM": 3110,
      "Ġusual": 3111,
      "Ġaffection": 3112,
      "OM": 3113,
      "Ġsmo": 3114,
      "Ġrelig": 3115,
      "Ġvarious": 3116,
      "Ġpit": 3117,
      "Tarzan": 3118,
      "Ġtakes": 3119,
      "ĠPe": 3120,
      "nothing": 3121,
      "ker": 3122,
      "Ġsubstance": 3123,
      "ĠAd": 3124,
      "ĠBrit": 3125,
      "ĠDr": 3126,
      "ĠAb": 3127,
      "Ġdistinct": 3128,
      "friend": 3129,
      "Ġstop": 3130,
      "portion": 3131,
      "nthe": 3132,
      "olved": 3133,
      "Ġoffe": 3134,
      "Ġsteps": 3135,
      "Ġtongue": 3136,
      "Ġwine": 3137,
      "Ġlower": 3138,
      "Ġgall": 3139,
      "ĠChrist": 3140,
      "Ġsurprise": 3141,
      "yer": 3142,
      "Ġnarrow": 3143,
      "Ġthro": 3144,
      "Ġclosed": 3145,
      "sed": 3146,
      "gment": 3147,
      "ays": 3148,
      "eks": 3149,
      "Ġterrible": 3150,
      "Ġanx": 3151,
      "ĠChar": 3152,
      "Ġbottom": 3153,
      "Ġrevol": 3154,
      "ĠQu": 3155,
      "irgin": 3156,
      "culty": 3157,
      "Ġdue": 3158,
      "Ġkiss": 3159,
      "Ġthank": 3160,
      "oman": 3161,
      "Ġseven": 3162,
      "Ġdistingu": 3163,
      "ables": 3164,
      "Ġcand": 3165,
      "Ġfaculty": 3166,
      "Ġlegs": 3167,
      "ĠAmerica": 3168,
      "Ġdam": 3169,
      "Ġproud": 3170,
      "Ġpicture": 3171,
      "ming": 3172,
      "Ġcost": 3173,
      "sis": 3174,
      "uation": 3175,
      "eds": 3176,
      "Ġfallen": 3177,
      "Ġseeing": 3178,
      "Ġwisdom": 3179,
      "iring": 3180,
      "laimed": 3181,
      "Ġenemy": 3182,
      "poss": 3183,
      "Ġlooks": 3184,
      "Ġpossibility": 3185,
      "Ġbox": 3186,
      "Ġshore": 3187,
      "overn": 3188,
      "Ġpolit": 3189,
      "aving": 3190,
      "Ġshoulder": 3191,
      "Ġfollows": 3192,
      "Ġoblig": 3193,
      "iffe": 3194,
      "Ġunity": 3195,
      "Ġleap": 3196,
      "bes": 3197,
      "ointed": 3198,
      "Ġjourney": 3199,
      "eg": 3200,
      "occ": 3201,
      "made": 3202,
      "came": 3203,
      "umb": 3204,
      "Ġhid": 3205,
      "tering": 3206,
      "Ġreceive": 3207,
      "sing": 3208,
      "Ġpop": 3209,
      "Ġperfectly": 3210,
      "Ġpassing": 3211,
      "noon": 3212,
      "Ġbelongs": 3213,
      "ners": 3214,
      "Ġid": 3215,
      "Ġder": 3216,
      "tical": 3217,
      "Ġsour": 3218,
      "Ġmot": 3219,
      "Ġfancy": 3220,
      "pecially": 3221,
      "Ġfacts": 3222,
      "bered": 3223,
      "Ġcommun": 3224,
      "vation": 3225,
      "Ġlion": 3226,
      "ertainly": 3227,
      "Ġdry": 3228,
      "Ġstates": 3229,
      "Ġvain": 3230,
      "Ġdarkness": 3231,
      "Ġlegisl": 3232,
      "ially": 3233,
      "uments": 3234,
      "nes": 3235,
      "Ġexplain": 3236,
      "gar": 3237,
      "acle": 3238,
      "ĠStates": 3239,
      "Ġpocket": 3240,
      "Ġfit": 3241,
      "uten": 3242,
      "low": 3243,
      "Ġroy": 3244,
      "CHAPTER": 3245,
      "field": 3246,
      "ĠHeaven": 3247,
      "ching": 3248,
      "ĠAgain": 3249,
      "first": 3250,
      "ral": 3251,
      "Ġhall": 3252,
      "Ġcopy": 3253,
      "Ġattend": 3254,
      "orses": 3255,
      "Ġbal": 3256,
      "Ġempt": 3257,
      "Ġinfluence": 3258,
      "hip": 3259,
      "met": 3260,
      "Ġmel": 3261,
      "ortunity": 3262,
      "ox": 3263,
      "Ġdinner": 3264,
      ".:": 3265,
      "cil": 3266,
      "edd": 3267,
      "vere": 3268,
      "ĠĠĠĠĠĠĠĠĠĠĠĠĠĠĠ": 3269,
      "Ġones": 3270,
      "Ah": 3271,
      "iver": 3272,
      "because": 3273,
      "Ġprevent": 3274,
      "Ġconceptions": 3275,
      "Ġsucceed": 3276,
      "oward": 3277,
      "Ġshout": 3278,
      "Ġfles": 3279,
      "upp": 3280,
      "Ġadmit": 3281,
      "add": 3282,
      "Ġshadow": 3283,
      "orence": 3284,
      "Ġves": 3285,
      "Ġmatters": 3286,
      "Ġpull": 3287,
      "ĠAfter": 3288,
      "anted": 3289,
      "Ġcheer": 3290,
      "Ġotherwise": 3291,
      "bar": 3292,
      "Ġvent": 3293,
      "object": 3294,
      "Ġmeth": 3295,
      "RA": 3296,
      "Ġsail": 3297,
      "hib": 3298,
      "those": 3299,
      "Ġstream": 3300,
      "fact": 3301,
      "ias": 3302,
      "Ġqual": 3303,
      "turn": 3304,
      "Ġboard": 3305,
      "Ġmil": 3306,
      "Ġfate": 3307,
      "Ġsusp": 3308,
      "Good": 3309,
      "Ġhill": 3310,
      "stit": 3311,
      "Ġwaiting": 3312,
      "take": 3313,
      "ye": 3314,
      "Ġaunt": 3315,
      "Ġmill": 3316,
      "anim": 3317,
      "Ġsky": 3318,
      "Ġwitness": 3319,
      "From": 3320,
      "RY": 3321,
      "Ġcharge": 3322,
      "Ġloss": 3323,
      "Ġvessel": 3324,
      "equ": 3325,
      "Ġinformation": 3326,
      "Ġnotice": 3327,
      "Ġvalue": 3328,
      "Ġsister": 3329,
      "Ġcompanion": 3330,
      "nal": 3331,
      "ĠSocrates": 3332,
      "eper": 3333,
      "tra": 3334,
      "Ġkne": 3335,
      "ims": 3336,
      "Ġgro": 3337,
      "ĠSp": 3338,
      "Ġpassion": 3339,
      "Ġfaint": 3340,
      "elve": 3341,
      "Ġlying": 3342,
      "Ġterror": 3343,
      "Ġprobably": 3344,
      "ipe": 3345,
      "Ġiron": 3346,
      "Ġ6": 3347,
      "Ġeduc": 3348,
      "ishes": 3349,
      "icious": 3350,
      "Ġroyal": 3351,
      "ĠMer": 3352,
      "Ġinj": 3353,
      "ressing": 3354,
      "Ġcaptain": 3355,
      "mitted": 3356,
      "Ġyours": 3357,
      "ID": 3358,
      "Ġfirm": 3359,
      "Ġimper": 3360,
      "aching": 3361,
      "Ġextra": 3362,
      "round": 3363,
      "same": 3364,
      "oul": 3365,
      "ĠTw": 3366,
      "ald": 3367,
      "Ġtest": 3368,
      "Ġspeed": 3369,
      "Ġstrugg": 3370,
      "One": 3371,
      "Ġmort": 3372,
      "Ġfortune": 3373,
      "Ġcognition": 3374,
      "LO": 3375,
      "wr": 3376,
      "ayton": 3377,
      "ys": 3378,
      "iny": 3379,
      "Ġchanged": 3380,
      "Ġgiving": 3381,
      "ply": 3382,
      "ashing": 3383,
      "Ġshot": 3384,
      "Ġtrave": 3385,
      "Ġremains": 3386,
      "Ġpossession": 3387,
      "af": 3388,
      "Ġlog": 3389,
      "Ġawful": 3390,
      "Ġmeasure": 3391,
      "Ġpapers": 3392,
      "ENT": 3393,
      "Ġattribut": 3394,
      "Ġsword": 3395,
      "--------": 3396,
      "Ġrepeated": 3397,
      "Ġquant": 3398,
      "clock": 3399,
      "Ġfinally": 3400,
      "Ġpalace": 3401,
      "leg": 3402,
      "ĠAND": 3403,
      "Ġaston": 3404,
      "Ġseek": 3405,
      "Ġapparent": 3406,
      "Ġaccident": 3407,
      "Ġfashion": 3408,
      "Ġla": 3409,
      "Ġshown": 3410,
      "away": 3411,
      "iently": 3412,
      "Ġspecies": 3413,
      "Ġlar": 3414,
      "Ġimpro": 3415,
      "velop": 3416,
      "Which": 3417,
      "Or": 3418,
      "bur": 3419,
      "Ġblow": 3420,
      "Ġmurder": 3421,
      "Ġwarriors": 3422,
      "Ġpeculiar": 3423,
      "urally": 3424,
      "Ġdiscuss": 3425,
      "Ġarrived": 3426,
      "Ġguess": 3427,
      "Ġcruel": 3428,
      "Ġsize": 3429,
      "Ġbesides": 3430,
      "Ġindividual": 3431,
      "Ġallow": 3432,
      "Ġafterwards": 3433,
      "fortun": 3434,
      "Your": 3435,
      "hum": 3436,
      "supp": 3437,
      "Ġburst": 3438,
      "Ġphenomena": 3439,
      "Ġcivil": 3440,
      "Ġexec": 3441,
      "Ġnoise": 3442,
      "Ġbirds": 3443,
      "bly": 3444,
      "Ġproduce": 3445,
      "Ġring": 3446,
      "Ġproved": 3447,
      "Ġblind": 3448,
      "Ġconsequently": 3449,
      ".:.:": 3450,
      "Al": 3451,
      "rec": 3452,
      "Ġappears": 3453,
      "Ġ*": 3454,
      "isto": 3455,
      "Ġconfidence": 3456,
      "Ġoriginal": 3457,
      "Ġmess": 3458,
      "arry": 3459,
      "Ġpoints": 3460,
      "Ġexpected": 3461,
      "Ġfaces": 3462,
      "por": 3463,
      "ulation": 3464,
      "Ġrunning": 3465,
      "ghed": 3466,
      "Ġident": 3467,
      "Ġprofess": 3468,
      "looking": 3469,
      "erable": 3470,
      "Ġph": 3471,
      "Ġdoth": 3472,
      "fall": 3473,
      "Ġvast": 3474,
      "Ġquestions": 3475,
      "Ġconfess": 3476,
      "Ġsufficient": 3477,
      "Ġflesh": 3478,
      "Ġthrew": 3479,
      "Ġextreme": 3480,
      "cendental": 3481,
      "Ġabsolutely": 3482,
      "Ġheat": 3483,
      "Ġdisappe": 3484,
      "Ġendeav": 3485,
      "either": 3486,
      "Ġgrew": 3487,
      "Ġconversation": 3488,
      "Ġwealth": 3489,
      "Ġknife": 3490,
      "Ġspect": 3491,
      "ĠAmerican": 3492,
      "suff": 3493,
      "Ġcabin": 3494,
      "Ġideas": 3495,
      "Ġhouses": 3496,
      "iments": 3497,
      "Ġattack": 3498,
      "fle": 3499,
      "empl": 3500,
      "olly": 3501,
      "Ġcreatures": 3502,
      "Ġsolemn": 3503,
      "ifferent": 3504,
      "sec": 3505,
      "Ġthirty": 3506,
      "Ġdeck": 3507,
      "osom": 3508,
      "Ġproduced": 3509,
      "Ġdemand": 3510,
      "'.": 3511,
      "IM": 3512,
      "Ġrise": 3513,
      "ns": 3514,
      "atures": 3515,
      "Ġconclusion": 3516,
      "ieve": 3517,
      "ĠLe": 3518,
      "Ġtrain": 3519,
      "Ġadvantage": 3520,
      "Ġreply": 3521,
      "work": 3522,
      "orough": 3523,
      "Ġgate": 3524,
      "Ġdefin": 3525,
      "esty": 3526,
      "Ġprisoner": 3527,
      "oted": 3528,
      "Ġremarkable": 3529,
      "ios": 3530,
      "Ġsuit": 3531,
      "Ġcourage": 3532,
      "Ġgrat": 3533,
      "Ġpot": 3534,
      "Ġur": 3535,
      "sha": 3536,
      "Ġwel": 3537,
      "estig": 3538,
      "Ġsyll": 3539,
      "Ġworthy": 3540,
      "race": 3541,
      "conscious": 3542,
      "Ar": 3543,
      "Ġlose": 3544,
      "Ġbeat": 3545,
      "igned": 3546,
      "Ġtall": 3547,
      "det": 3548,
      "lo": 3549,
      "wind": 3550,
      "Ġwid": 3551,
      "aning": 3552,
      "ĠSte": 3553,
      "Ġrend": 3554,
      "ae": 3555,
      "Ġfol": 3556,
      "icles": 3557,
      "Ġroof": 3558,
      ".)": 3559,
      "Ġkilled": 3560,
      "Ġimportant": 3561,
      "worth": 3562,
      "Ġadmir": 3563,
      "Ġleaving": 3564,
      "something": 3565,
      "enry": 3566,
      "Ġfixed": 3567,
      "Ġstreets": 3568,
      "give": 3569,
      "lock": 3570,
      "erve": 3571,
      "Ġcapt": 3572,
      "Ġaid": 3573,
      "mind": 3574,
      "inate": 3575,
      "Ġthin": 3576,
      "Ġconsiderable": 3577,
      "ĠSuch": 3578,
      "ĠGe": 3579,
      "Ġprince": 3580,
      "Ġdoctor": 3581,
      "aker": 3582,
      "Ġevidence": 3583,
      "ĠOh": 3584,
      "Ġspoken": 3585,
      "ardon": 3586,
      "Ġanybody": 3587,
      "Ġsenses": 3588,
      "Ġleaves": 3589,
      "aet": 3590,
      "father": 3591,
      "Ġmaid": 3592,
      "emed": 3593,
      "Ġdescend": 3594,
      "Ġseries": 3595,
      "ĠSe": 3596,
      "Ġtender": 3597,
      "berg": 3598,
      "princi": 3599,
      "Ġcler": 3600,
      "Ġclothes": 3601,
      "wing": 3602,
      "Ġnobody": 3603,
      "Ġforeign": 3604,
      "inal": 3605,
      "ĠMay": 3606,
      "First": 3607,
      "Ġcauses": 3608,
      "Ġimagination": 3609,
      "chief": 3610,
      "book": 3611,
      "Ġbank": 3612,
      "ĠWal": 3613,
      "ordinary": 3614,
      "Ġfru": 3615,
      "Ġrough": 3616,
      "hant": 3617,
      "ĠEx": 3618,
      "arest": 3619,
      "Ġloud": 3620,
      "ĠĠĠĠĠĠĠĠĠĠĠĠĠĠĠĠčĊ": 3621,
      "ĠWho": 3622,
      "ĠState": 3623,
      "Ġhonor": 3624,
      "bre": 3625,
      "ĠHence": 3626,
      "Ġfamiliar": 3627,
      "Ġalive": 3628,
      "Ġintrodu": 3629,
      "Ġshame": 3630,
      "AD": 3631,
      "Ġtrying": 3632,
      "Ġlif": 3633,
      "Ġhence": 3634,
      "Ġadvent": 3635,
      "Ġstir": 3636,
      "Ġmethod": 3637,
      "Ġcorrespond": 3638,
      "Ġimagine": 3639,
      "kin": 3640,
      "Ġsorry": 3641,
      "Ġfail": 3642,
      "play": 3643,
      "ability": 3644,
      "Ġcrit": 3645,
      "Ġfavour": 3646,
      "ĠAm": 3647,
      "CEN": 3648,
      "Ġ8": 3649,
      "Ġdemon": 3650,
      "Ġsummer": 3651,
      "Ġclearly": 3652,
      "Ġhighest": 3653,
      "enance": 3654,
      "Ġequally": 3655,
      "Ġfavor": 3656,
      "Ġearnest": 3657,
      "rey": 3658,
      "Ġstro": 3659,
      "Ġcovered": 3660,
      "udd": 3661,
      "put": 3662,
      "orter": 3663,
      "atic": 3664,
      "Ġteeth": 3665,
      "TE": 3666,
      "half": 3667,
      "Ġsurface": 3668,
      "nded": 3669,
      "Ġhorses": 3670,
      "ĠHelium": 3671,
      "phe": 3672,
      "Ġmanif": 3673,
      "ses": 3674,
      "ĠPrince": 3675,
      "iest": 3676,
      "Ġbas": 3677,
      "Ġsaf": 3678,
      "view": 3679,
      "sur": 3680,
      "Ġdozen": 3681,
      "Ġsolid": 3682,
      "Ġquarter": 3683,
      "Ġconstitution": 3684,
      "Ġsought": 3685,
      "Ġglance": 3686,
      "Ġtalking": 3687,
      "pur": 3688,
      "Ġstudy": 3689,
      "Ġcouple": 3690,
      "Ġsurely": 3691,
      "exper": 3692,
      "Ġhost": 3693,
      "Ġgrass": 3694,
      "Ġeverybody": 3695,
      "Ġbrave": 3696,
      "Ġpair": 3697,
      "Ġdiscover": 3698,
      "iam": 3699,
      "orous": 3700,
      "Ġopportunity": 3701,
      "did": 3702,
      "Ġmembers": 3703,
      "Ġlines": 3704,
      "Ġdirectly": 3705,
      "Ġvan": 3706,
      "Ġsin": 3707,
      "Ġcred": 3708,
      "Ġdare": 3709,
      "ĠAra": 3710,
      "lim": 3711,
      "Ġgun": 3712,
      "case": 3713,
      "Ġbirth": 3714,
      "Ġpale": 3715,
      "Ġnose": 3716,
      "eping": 3717,
      "shall": 3718,
      "Ġupper": 3719,
      "Ġproposition": 3720,
      "ĠDor": 3721,
      "ĠJane": 3722,
      "Ġinnoc": 3723,
      "Ġempty": 3724,
      "Ġfet": 3725,
      "Ġorgan": 3726,
      "Ġevident": 3727,
      "Ġdevil": 3728,
      "Ġseat": 3729,
      "Ġtruly": 3730,
      "Ġmarried": 3731,
      "col": 3732,
      "Ġtor": 3733,
      "Ġsynthe": 3734,
      "ential": 3735,
      "Ġyellow": 3736,
      "ĠĠĠĠĠĠĠĠĠĠĠĠĠĠĠĠĠ": 3737,
      "Ġquality": 3738,
      "Ġespecially": 3739,
      "Ġexplan": 3740,
      "Ġcitizens": 3741,
      "Ġrequired": 3742,
      "ĠĠĠĠĠĠĠĠĠĠĠĠĠĠĠĠĠĠĠĠĠĠĠĠĠĠĠĠĠĠĠĠĠĠĠĠĠĠĠĠĠĠĠĠĠĠĠĠĠĠĠĠĠĠĠĠĠĠĠĠĠĠĠĠĠĠĠĠĠĠĠĠĠĠĠčĊ": 3743,
      "Ġcrown": 3744,
      "Ġuseful": 3745,
      "Ġoccurred": 3746,
      "Ġaud": 3747,
      "stone": 3748,
      "Ġfault": 3749,
      "racted": 3750,
      "ĠProfessor": 3751,
      "Ġfemale": 3752,
      "Ġdull": 3753,
      "pal": 3754,
      "Ġreading": 3755,
      "Ġweather": 3756,
      "ĠTheaet": 3757,
      "Ġwriting": 3758,
      "Ġcorrect": 3759,
      "follow": 3760,
      "Ġwear": 3761,
      "sw": 3762,
      "Ġdat": 3763,
      "still": 3764,
      "Ġdece": 3765,
      "Ġdefe": 3766,
      "Ġoffer": 3767,
      "Ġsett": 3768,
      "Ġpleased": 3769,
      "Ġlaughed": 3770,
      "Ġpet": 3771,
      "Ġpersu": 3772,
      "exp": 3773,
      "Ġdistant": 3774,
      "Ġcolour": 3775,
      "Ġmentioned": 3776,
      "habit": 3777,
      "Ġpos": 3778,
      "Ġrequire": 3779,
      "ĠProject": 3780,
      "Ġrational": 3781,
      "contin": 3782,
      "Ġknowing": 3783,
      "Ġloc": 3784,
      "always": 3785,
      "idge": 3786,
      "cor": 3787,
      "Ġreality": 3788,
      "ĠHuck": 3789,
      "KE": 3790,
      "amb": 3791,
      "disc": 3792,
      "antic": 3793,
      "ival": 3794,
      "Ġsuffer": 3795,
      "ĠCan": 3796,
      "Ġbecomes": 3797,
      "nature": 3798,
      "rate": 3799,
      "Ġsides": 3800,
      "Ġbold": 3801,
      "Ġmile": 3802,
      "Ġfla": 3803,
      "Ġsprang": 3804,
      "Ġladies": 3805,
      "Ġsomewhat": 3806,
      "Ġfingers": 3807,
      "Ġshape": 3808,
      "bro": 3809,
      "water": 3810,
      "Ġwond": 3811,
      "Ġliter": 3812,
      "rier": 3813,
      "Ġkinds": 3814,
      "Ġactual": 3815,
      "Ġreport": 3816,
      "Ġdecla": 3817,
      "fac": 3818,
      "Ġtit": 3819,
      "Ġrecoll": 3820,
      "hel": 3821,
      "Ġuncle": 3822,
      "Ġbitter": 3823,
      "Ġfierce": 3824,
      "Ġtend": 3825,
      "Ġble": 3826,
      "bling": 3827,
      "Ġserve": 3828,
      "gs": 3829,
      "asy": 3830,
      "Ġswift": 3831,
      "mar": 3832,
      "ĠDu": 3833,
      "plend": 3834,
      "Ġthrow": 3835,
      "exist": 3836,
      "ivity": 3837,
      "Ġspirits": 3838,
      "uv": 3839,
      "ainted": 3840,
      "Ġcapable": 3841,
      "urther": 3842,
      "Ġactually": 3843,
      "ai": 3844,
      "incess": 3845,
      "Ġgain": 3846,
      "Ġtro": 3847,
      "Ġmyst": 3848,
      "ĠEven": 3849,
      "Ġprim": 3850,
      "board": 3851,
      "Ġbosom": 3852,
      "Ġasser": 3853,
      "Ġdouble": 3854,
      "Ġedge": 3855,
      "ĠFlorence": 3856,
      "bor": 3857,
      "Ġthrown": 3858,
      "Ġobserve": 3859,
      "Ġexclaimed": 3860,
      "ĠClayton": 3861,
      "ait": 3862,
      "Ġtwelve": 3863,
      "ashed": 3864,
      "ĠBar": 3865,
      "ailed": 3866,
      "Ġstands": 3867,
      "Ġmaterial": 3868,
      "Ġworks": 3869,
      "lected": 3870,
      "Ġforty": 3871,
      "people": 3872,
      "Ġwrote": 3873,
      "Ġwatched": 3874,
      "Ġexcellent": 3875,
      "seless": 3876,
      "Ġengaged": 3877,
      "bid": 3878,
      "Ġdecl": 3879,
      "Ġsmoke": 3880,
      "Ġpossibly": 3881,
      "Ġbrain": 3882,
      "Ġregarded": 3883,
      "isible": 3884,
      "ste": 3885,
      "Ġamount": 3886,
      "acher": 3887,
      "cles": 3888,
      "Ġgloom": 3889,
      "Thou": 3890,
      "Ġsatisfied": 3891,
      "Ġbreakfast": 3892,
      "Ġnorth": 3893,
      "point": 3894,
      "ĠHenry": 3895,
      "Ġproble": 3896,
      "four": 3897,
      "Ġmult": 3898,
      "ĠĠĠĠĠĠĠĠĠĠĠĠĠ": 3899,
      "Ġere": 3900,
      "eter": 3901,
      "ĠTheir": 3902,
      "Ġevidently": 3903,
      "itated": 3904,
      "Ġyield": 3905,
      "ague": 3906,
      "Ġwonderful": 3907,
      "ux": 3908,
      "Ġ16": 3909,
      "Ġinquir": 3910,
      "eunt": 3911,
      "ushing": 3912,
      "Ġspread": 3913,
      "Ġrob": 3914,
      "Ġpride": 3915,
      "Ġactions": 3916,
      "Ġmal": 3917,
      "ops": 3918,
      "ĠCr": 3919,
      "Ġscream": 3920,
      "Ġodd": 3921,
      "Ġcrime": 3922,
      "Ġpersonal": 3923,
      "Ġdress": 3924,
      "ENRY": 3925,
      "ault": 3926,
      "ĠCha": 3927,
      "Ġservant": 3928,
      "Pro": 3929,
      "Ġnative": 3930,
      "Ġcurious": 3931,
      "mission": 3932,
      "Ġsnow": 3933,
      "Ġallowed": 3934,
      "sue": 3935,
      "Ġwished": 3936,
      "Ġshoulders": 3937,
      "wood": 3938,
      "Ġheight": 3939,
      "Ġsurprised": 3940,
      "Ġthreat": 3941,
      "Ġflowers": 3942,
      "condition": 3943,
      "Ġphilosophy": 3944,
      "Ġoper": 3945,
      "icle": 3946,
      "Ġscarcely": 3947,
      "gers": 3948,
      "Ġstock": 3949,
      "Ġafternoon": 3950,
      "Ġdollars": 3951,
      "RI": 3952,
      "Ġstick": 3953,
      "Ġwindows": 3954,
      "Ġevents": 3955,
      "consider": 3956,
      "ĠParis": 3957,
      "five": 3958,
      "Ġet": 3959,
      "stra": 3960,
      "Ġaside": 3961,
      "ĠWeller": 3962,
      "Ġbuilding": 3963,
      "Ġtone": 3964,
      "Ġsong": 3965,
      "ouis": 3966,
      "ieur": 3967,
      "Ġshare": 3968,
      "acity": 3969,
      "Ġexactly": 3970,
      "interest": 3971,
      "Ġtrad": 3972,
      "Ġintellect": 3973,
      "Ġenemies": 3974,
      "Ġlot": 3975,
      "Ġaltogether": 3976,
      "Ġbab": 3977,
      "ĠMic": 3978,
      "Ġprogress": 3979,
      "ĠYour": 3980,
      "Ġsteam": 3981,
      "ĠSw": 3982,
      "ouring": 3983,
      "Ġevent": 3984,
      "AG": 3985,
      "Ġstatement": 3986,
      "Ġpity": 3987,
      "Ġtwice": 3988,
      "Ġpresented": 3989,
      "called": 3990,
      "course": 3991,
      "themselves": 3992,
      "fin": 3993,
      "Ġsand": 3994,
      "isk": 3995,
      "Ġbent": 3996,
      "ĠKor": 3997,
      "Ġnecessarily": 3998,
      "mony": 3999,
      "Ġexcl": 4000,
      "too": 4001,
      "rely": 4002,
      "itor": 4003,
      "Ġbare": 4004,
      "Ġgar": 4005,
      "Ġnearer": 4006,
      "Ġdiss": 4007,
      "Ġcatch": 4008,
      "These": 4009,
      "Ġspecul": 4010,
      "Ġbid": 4011,
      "Ġlod": 4012,
      "irginia": 4013,
      "Ġsouth": 4014,
      "ital": 4015,
      "ancing": 4016,
      "Ġprint": 4017,
      "last": 4018,
      "tal": 4019,
      "terday": 4020,
      "three": 4021,
      "Ġbelieved": 4022,
      "Ġaccompl": 4023,
      "Ġnine": 4024,
      "otty": 4025,
      "Have": 4026,
      "Ġhither": 4027,
      "Ġrising": 4028,
      "Ġmoving": 4029,
      "Ġegg": 4030,
      "ĠĠĠĠĠĠĠĠĠĠĠ": 4031,
      "Than": 4032,
      "usted": 4033,
      "ĠTH": 4034,
      "war": 4035,
      "Ġrender": 4036,
      "Ġtrembl": 4037,
      "Ġpromise": 4038,
      "aper": 4039,
      "attered": 4040,
      "many": 4041,
      "Ġsubjects": 4042,
      "Ġsafety": 4043,
      "Nor": 4044,
      "iem": 4045,
      "Ġcover": 4046,
      "cks": 4047,
      "del": 4048,
      "po": 4049,
      "Ġexternal": 4050,
      "Ġbread": 4051,
      "Ġforgotten": 4052,
      "resently": 4053,
      "ĠYOU": 4054,
      "Ġentertain": 4055,
      "ĠLa": 4056,
      "ization": 4057,
      "Ġauthority": 4058,
      "ented": 4059,
      "held": 4060,
      "seen": 4061,
      "Ġweap": 4062,
      "Ġbegun": 4063,
      "Ġwelcome": 4064,
      "bell": 4065,
      "Ġmode": 4066,
      "Ġgods": 4067,
      "Ġmir": 4068,
      "Ġvalley": 4069,
      "ember": 4070,
      "urely": 4071,
      "Ġfriendship": 4072,
      "Ġwhispered": 4073,
      "rans": 4074,
      "ration": 4075,
      "Ġtouched": 4076,
      "Ġstar": 4077,
      "anch": 4078,
      "ĠCome": 4079,
      "ĠLady": 4080,
      "Ġcentre": 4081,
      "inction": 4082,
      "Ġfan": 4083,
      "yn": 4084,
      "Ġnumbers": 4085,
      "Ġassist": 4086,
      "Ġconduct": 4087,
      "Ġbranches": 4088,
      "rand": 4089,
      "Ġdisp": 4090,
      "duced": 4091,
      "ĠDon": 4092,
      "Ġsilver": 4093,
      "Ġelements": 4094,
      "pter": 4095,
      "ĠPl": 4096,
      "eps": 4097,
      "Ġliberty": 4098,
      "Eng": 4099,
      "Ġcoat": 4100,
      "Exeunt": 4101,
      "aches": 4102,
      "Ġsuperior": 4103,
      "Ġeager": 4104,
      "Ġreference": 4105,
      "oyal": 4106,
      "Ġproportion": 4107,
      "Ġsimply": 4108,
      "nor": 4109,
      "Ġdust": 4110,
      "ĠWil": 4111,
      "Ġexercise": 4112,
      "Ġquantity": 4113,
      "Ġdign": 4114,
      "Ġinvestig": 4115,
      "000": 4116,
      "DU": 4117,
      "gentle": 4118,
      "isc": 4119,
      "Ġmale": 4120,
      "Ġinside": 4121,
      "Ġnaturally": 4122,
      "Ġaddition": 4123,
      "hal": 4124,
      "Ġband": 4125,
      "Ġyards": 4126,
      "Ġescap": 4127,
      "Ġportion": 4128,
      "Ġhurt": 4129,
      "LI": 4130,
      "ma": 4131,
      "Ġmeas": 4132,
      "ĠYork": 4133,
      "Ġsensible": 4134,
      "Ġburied": 4135,
      "Ġdrawing": 4136,
      "erved": 4137,
      "Ġdwell": 4138,
      "mpath": 4139,
      "child": 4140,
      "Ġdesign": 4141,
      "ANT": 4142,
      "Ġwalking": 4143,
      "Ġapproached": 4144,
      "Ġassoci": 4145,
      "onsieur": 4146,
      "OT": 4147,
      "Ġextent": 4148,
      "Ġhideous": 4149,
      "Ġbore": 4150,
      "Ġkey": 4151,
      "Ġknight": 4152,
      "Ġends": 4153,
      "poses": 4154,
      "inced": 4155,
      "Ġrights": 4156,
      "zed": 4157,
      "pected": 4158,
      "Ġaware": 4159,
      "Un": 4160,
      "Ġfrequ": 4161,
      "ipp": 4162,
      "Ġaim": 4163,
      "lly": 4164,
      "Ġintended": 4165,
      "ĠII": 4166,
      "ĠPaul": 4167,
      "Ġworst": 4168,
      "Ġdestroy": 4169,
      "Ġgrad": 4170,
      "Ġangry": 4171,
      "ique": 4172,
      "ann": 4173,
      "Ġseason": 4174,
      "Ġwhereas": 4175,
      "host": 4176,
      "orious": 4177,
      "Ġpack": 4178,
      "ĠAN": 4179,
      "forth": 4180,
      "Ġhappen": 4181,
      "Ġgolden": 4182,
      "against": 4183,
      "life": 4184,
      "Ġclim": 4185,
      "Ġinquired": 4186,
      "nding": 4187,
      "pted": 4188,
      "edu": 4189,
      "ĠIN": 4190,
      "ĠCo": 4191,
      "ĠJames": 4192,
      "Ġqueen": 4193,
      "Ġcircle": 4194,
      "Ġfish": 4195,
      "Ġrage": 4196,
      "Ġwaited": 4197,
      "Ġexplained": 4198,
      "Ġpreced": 4199,
      "Ġhorror": 4200,
      "Ġproposed": 4201,
      "Ġconsequence": 4202,
      "Ġbrief": 4203,
      "others": 4204,
      "Ġordinary": 4205,
      "Ġdefinition": 4206,
      "ky": 4207,
      "atory": 4208,
      "QU": 4209,
      "Ġball": 4210,
      "rade": 4211,
      "utation": 4212,
      "Ġforced": 4213,
      "sured": 4214,
      "Ġtrade": 4215,
      "hallenger": 4216,
      "Exit": 4217,
      "ford": 4218,
      "alous": 4219,
      "Ġconnected": 4220,
      "Tom": 4221,
      "question": 4222,
      "Ġexceed": 4223,
      "Ġchoice": 4224,
      "mod": 4225,
      "aling": 4226,
      "Ġmountains": 4227,
      "Ġknees": 4228,
      "door": 4229,
      "oses": 4230,
      "ummer": 4231,
      "Ġamaz": 4232,
      "Ġasleep": 4233,
      "Ġslave": 4234,
      "subject": 4235,
      "TR": 4236,
      "opp": 4237,
      "erous": 4238,
      "itself": 4239,
      "Ġparent": 4240,
      "Ġhes": 4241,
      "Ġstars": 4242,
      "Ġpress": 4243,
      "Ġrefer": 4244,
      "Ġgenius": 4245,
      "Ġcalm": 4246,
      "yle": 4247,
      "Ġnig": 4248,
      "ĠMad": 4249,
      "ateg": 4250,
      "Ġhearts": 4251,
      "pany": 4252,
      "vious": 4253,
      "Ġaccord": 4254,
      "natural": 4255,
      "make": 4256,
      "Ġmount": 4257,
      "Ġdangerous": 4258,
      "ties": 4259,
      "Ġdisapp": 4260,
      "ada": 4261,
      "inkle": 4262,
      "Ġhate": 4263,
      "going": 4264,
      "mo": 4265,
      "Ġ7": 4266,
      "aned": 4267,
      "Ġnations": 4268,
      "uding": 4269,
      "Ġputting": 4270,
      "Ġfinal": 4271,
      "Ġfill": 4272,
      "ĠHENRY": 4273,
      "Ġsituation": 4274,
      "Sir": 4275,
      "Ġpowerful": 4276,
      ");": 4277,
      "iance": 4278,
      "Ġdescribed": 4279,
      "necessary": 4280,
      "ĠAth": 4281,
      "Ġarrange": 4282,
      "Ġindepend": 4283,
      "Ġfigures": 4284,
      "Ġthroat": 4285,
      "rows": 4286,
      "bus": 4287,
      "Ġfinger": 4288,
      "whether": 4289,
      "Ġopening": 4290,
      "Ġbehold": 4291,
      "Ġdemonstr": 4292,
      "far": 4293,
      "Ġpil": 4294,
      "rose": 4295,
      "Ġarts": 4296,
      "conf": 4297,
      "Ay": 4298,
      "Ġeld": 4299,
      "ĠTr": 4300,
      "Ġje": 4301,
      "Ġrope": 4302,
      "spir": 4303,
      "therefore": 4304,
      "Ġaffairs": 4305,
      "stairs": 4306,
      "aming": 4307,
      "ĠHouse": 4308,
      "Ġwaters": 4309,
      "ading": 4310,
      "Ġvo": 4311,
      "Ġfeatures": 4312,
      "Ġbuilt": 4313,
      "Ġscra": 4314,
      "izing": 4315,
      "boy": 4316,
      "Ġprepared": 4317,
      "FF": 4318,
      "Will": 4319,
      "Ġcompar": 4320,
      "UM": 4321,
      "cur": 4322,
      "Ġsuspect": 4323,
      "ĠMac": 4324,
      "Ġfarther": 4325,
      "arthoris": 4326,
      "oring": 4327,
      "Ġpremiss": 4328,
      "Ġrepresentation": 4329,
      "Ġgrief": 4330,
      "ander": 4331,
      "Ġinvent": 4332,
      "Ġlone": 4333,
      "ean": 4334,
      "itable": 4335,
      "astic": 4336,
      "Ġgrou": 4337,
      "Ġunderstood": 4338,
      "Ġcaused": 4339,
      "Ġkeeping": 4340,
      "Ġrapidly": 4341,
      "ĠMore": 4342,
      "agraph": 4343,
      "yet": 4344,
      "asant": 4345,
      "Ġgame": 4346,
      "ocks": 4347,
      "Ġcrim": 4348,
      "jah": 4349,
      "Tis": 4350,
      "ĠSh": 4351,
      "ourt": 4352,
      "between": 4353,
      "Ġpan": 4354,
      "Ġcontempl": 4355,
      "Some": 4356,
      "ller": 4357,
      "udden": 4358,
      "Ġsupport": 4359,
      "Ġbill": 4360,
      "ician": 4361,
      "ground": 4362,
      "Ġceased": 4363,
      "Ġexplanation": 4364,
      "Ġloose": 4365,
      "adv": 4366,
      "unning": 4367,
      "racters": 4368,
      "Ġcountenance": 4369,
      "matter": 4370,
      "lection": 4371,
      "Ġgle": 4372,
      "ivered": 4373,
      "Ġ12": 4374,
      "athered": 4375,
      "gen": 4376,
      "rown": 4377,
      "Ġtale": 4378,
      "Ġ10": 4379,
      "Ġdaily": 4380,
      "atched": 4381,
      "inking": 4382,
      "jud": 4383,
      "ĠLouis": 4384,
      "Ġdrop": 4385,
      "Ġadvance": 4386,
      "Ġeducation": 4387,
      "lin": 4388,
      "Ġtaught": 4389,
      "Ġreven": 4390,
      "Ġstated": 4391,
      "Ġdegrees": 4392,
      "sat": 4393,
      "Ġmach": 4394,
      "Ġluck": 4395,
      "ĠMart": 4396,
      "iece": 4397,
      "Ġunknown": 4398,
      "ĠGuten": 4399,
      "Ġminds": 4400,
      "ths": 4401,
      "Ġspecial": 4402,
      "udes": 4403,
      "Ġprefer": 4404,
      "sens": 4405,
      "itch": 4406,
      "Did": 4407,
      "ctions": 4408,
      "Ġparticularly": 4409,
      "Ġserious": 4410,
      "ĠGutenberg": 4411,
      "Ġflight": 4412,
      "Ġmarriage": 4413,
      "Ġlarger": 4414,
      "Very": 4415,
      "bted": 4416,
      "thern": 4417,
      "foot": 4418,
      "Ġstation": 4419,
      "Ġado": 4420,
      "Ġnotion": 4421,
      "Ġconsideration": 4422,
      "inn": 4423,
      "arl": 4424,
      "Ġjudgment": 4425,
      "econd": 4426,
      "Ġsatisfaction": 4427,
      "Ġbeasts": 4428,
      "Ġfond": 4429,
      "ators": 4430,
      "Ġstage": 4431,
      "Ġdreadful": 4432,
      "since": 4433,
      "oles": 4434,
      "Ġpictures": 4435,
      "Ġtax": 4436,
      "Ġwinter": 4437,
      "Ġma": 4438,
      "Ġwoods": 4439,
      "kins": 4440,
      "Ġhills": 4441,
      "Ġholding": 4442,
      "Ġcontrad": 4443,
      ",-": 4444,
      "inging": 4445,
      "awber": 4446,
      "Ġfortun": 4447,
      "Ġacquaint": 4448,
      "key": 4449,
      "Ġlevel": 4450,
      "ape": 4451,
      "Ġthorough": 4452,
      "ixt": 4453,
      "master": 4454,
      "Ġnur": 4455,
      "Ġdebt": 4456,
      "God": 4457,
      "uries": 4458,
      "Ġmyster": 4459,
      "Ġdevelop": 4460,
      "Ġrelations": 4461,
      "Ġ{": 4462,
      "Ġpardon": 4463,
      "Ġhero": 4464,
      "Ġgiant": 4465,
      "Ġspent": 4466,
      "After": 4467,
      "Cl": 4468,
      "Ġcult": 4469,
      "Ġdoors": 4470,
      "ĠĠĠĠĠĠĠĠĠĠĠĠĠĠĠĠĠčĊ": 4471,
      "Ġfeelings": 4472,
      "Ġoffered": 4473,
      "Ġsli": 4474,
      "Ġduties": 4475,
      "ĠWilliam": 4476,
      "PH": 4477,
      "represent": 4478,
      "Ġpipe": 4479,
      "ĠCol": 4480,
      "ourable": 4481,
      "Ġben": 4482,
      "Ġstern": 4483,
      "common": 4484,
      "Ġacts": 4485,
      "Ġhurried": 4486,
      "ĠDuke": 4487,
      "Ġing": 4488,
      "eral": 4489,
      "Ġarch": 4490,
      "icks": 4491,
      "Ġexists": 4492,
      "Ġtranscendental": 4493,
      "Ġhearing": 4494,
      "Ġrum": 4495,
      "Ġrub": 4496,
      "using": 4497,
      "ĠCertainly": 4498,
      "Ġdecided": 4499,
      "Don": 4500,
      "pher": 4501,
      "lease": 4502,
      "Ġweeks": 4503,
      "eless": 4504,
      "Ġduke": 4505,
      "Ġstepped": 4506,
      "Ġcir": 4507,
      "asc": 4508,
      "asped": 4509,
      "Ġclean": 4510,
      "possess": 4511,
      "iosity": 4512,
      "Ġmystery": 4513,
      "serv": 4514,
      "atively": 4515,
      "Ġattain": 4516,
      "order": 4517,
      "Ġdistur": 4518,
      "mark": 4519,
      "pres": 4520,
      "Ġsphere": 4521,
      "ounced": 4522,
      "Ġextraordinary": 4523,
      "Our": 4524,
      "Ġ9": 4525,
      "ichard": 4526,
      "Ġfinished": 4527,
      "Ġmidst": 4528,
      "Ġimportance": 4529,
      "Ġphysical": 4530,
      "Ġdivided": 4531,
      "ials": 4532,
      "Ġinstr": 4533,
      "cred": 4534,
      "ele": 4535,
      "rors": 4536,
      "omy": 4537,
      "oused": 4538,
      "Ġfailed": 4539,
      "ensive": 4540,
      "Ġapes": 4541,
      "Ġpractice": 4542,
      "Ġofficer": 4543,
      "determ": 4544,
      "Ġskin": 4545,
      "world": 4546,
      "whole": 4547,
      "Ġmurm": 4548,
      "Ġsplend": 4549,
      "ulous": 4550,
      "ieved": 4551,
      "Ġshel": 4552,
      "respect": 4553,
      "Ġdivine": 4554,
      "cra": 4555,
      "enn": 4556,
      "ĠIII": 4557,
      "Ġrejo": 4558,
      "Ġener": 4559,
      "arker": 4560,
      "ĠVirginia": 4561,
      "Ġsingular": 4562,
      "Ġseparate": 4563,
      "Ġseized": 4564,
      "Ġusually": 4565,
      "Ġtreasure": 4566,
      "overnment": 4567,
      "Ġsource": 4568,
      "85": 4569,
      "Ġpointed": 4570,
      "Ġmarked": 4571,
      "oments": 4572,
      "oop": 4573,
      "Ġbelief": 4574,
      "Ġsuspic": 4575,
      "ĠSha": 4576,
      "ĠNature": 4577,
      "ctr": 4578,
      "theless": 4579,
      "Ġsupre": 4580,
      "Ġprecious": 4581,
      "possible": 4582,
      "utions": 4583,
      "Go": 4584,
      "Ġfee": 4585,
      "ĠGeorge": 4586,
      "ĠMaster": 4587,
      "Ġdetermine": 4588,
      "Ġtask": 4589,
      "orne": 4590,
      "Ġages": 4591,
      "coming": 4592,
      "Ġhandsome": 4593,
      "SE": 4594,
      "Ġspr": 4595,
      "bu": 4596,
      "icable": 4597,
      "Ġworked": 4598,
      "inks": 4599,
      "Ġfriendly": 4600,
      "Ġhurry": 4601,
      "Ġthine": 4602,
      "Ġsquare": 4603,
      "ĠMor": 4604,
      "ĠThur": 4605,
      "Ġadvanced": 4606,
      "Ġperceive": 4607,
      "among": 4608,
      "Ġexcess": 4609,
      "ems": 4610,
      "Ġinvol": 4611,
      "Ġpolice": 4612,
      "country": 4613,
      "dem": 4614,
      "Ġbearing": 4615,
      "Ġrail": 4616,
      "Ġsettled": 4617,
      "inations": 4618,
      "Ġapply": 4619,
      "oots": 4620,
      "Ġaddress": 4621,
      "Ġsooner": 4622,
      "Ġcontinue": 4623,
      "Ġproceeded": 4624,
      "looked": 4625,
      "Ġrendered": 4626,
      "don": 4627,
      "Ġcaut": 4628,
      "cean": 4629,
      "cked": 4630,
      "ĠDick": 4631,
      "Ġchoose": 4632,
      "Ġtribe": 4633,
      "ĠBritish": 4634,
      "Ġobliged": 4635,
      "giv": 4636,
      "quis": 4637,
      "Ġkeen": 4638,
      "Ġhyp": 4639,
      "Her": 4640,
      "Ġnamed": 4641,
      "ĠFirst": 4642,
      "ĠGood": 4643,
      "Ġabsence": 4644,
      "Ġofficers": 4645,
      "Ġhadn": 4646,
      "Ġsacri": 4647,
      "Ġcompletely": 4648,
      "Ġconsciousness": 4649,
      "alog": 4650,
      "Ġsaved": 4651,
      "ension": 4652,
      "LU": 4653,
      "txt": 4654,
      "Ġconnection": 4655,
      "Ġreligion": 4656,
      "isp": 4657,
      "Ġlit": 4658,
      "ĠRo": 4659,
      "Ġmeeting": 4660,
      "ĠSund": 4661,
      "ode": 4662,
      "ĠDav": 4663,
      "athemat": 4664,
      "Re": 4665,
      "Ġhom": 4666,
      "Ġassured": 4667,
      "ĠMon": 4668,
      "ĠBars": 4669,
      "Ġfully": 4670,
      "arded": 4671,
      "ĠPhil": 4672,
      "ggotty": 4673,
      "Ġsympath": 4674,
      "Ġpraise": 4675,
      "Ġack": 4676,
      "Ġextend": 4677,
      "uzz": 4678,
      "Ġtum": 4679,
      "Ġunf": 4680,
      "Ġdise": 4681,
      "ĠJack": 4682,
      "rences": 4683,
      "TION": 4684,
      "Ġpieces": 4685,
      "Ġresembl": 4686,
      "ille": 4687,
      "Ġ--\"": 4688,
      "Ġemployed": 4689,
      "ĠĠĠĠĠĠĠĠĠĠĠĠĠĠĠĠĠĠĠĠ": 4690,
      "Ġwatching": 4691,
      "bra": 4692,
      "iable": 4693,
      "Ġstyle": 4694,
      "istic": 4695,
      "Ġarmy": 4696,
      "agger": 4697,
      "reen": 4698,
      "itement": 4699,
      "Ġbase": 4700,
      "Ġremoved": 4701,
      "Ġafford": 4702,
      "Ġservants": 4703,
      "Ġlistened": 4704,
      "cer": 4705,
      "ongress": 4706,
      "liber": 4707,
      "Ġexhib": 4708,
      "Ġperform": 4709,
      "Ġemp": 4710,
      "dire": 4711,
      "ĠSol": 4712,
      "ĠThoris": 4713,
      "Ġelement": 4714,
      "change": 4715,
      "fulness": 4716,
      "Ġthinks": 4717,
      "Ġinfer": 4718,
      "cannot": 4719,
      "pic": 4720,
      "ĠSm": 4721,
      "Ġpartly": 4722,
      "Ġinnocent": 4723,
      "IV": 4724,
      "ina": 4725,
      "Ġmour": 4726,
      "Ġwilling": 4727,
      "ĠDEAR": 4728,
      "Ġaffirm": 4729,
      "cult": 4730,
      "Ġtheory": 4731,
      "Ġgenus": 4732,
      "Ġrules": 4733,
      "Ġfer": 4734,
      "ĠGo": 4735,
      "icted": 4736,
      "Ġwrit": 4737,
      "Ġplayed": 4738,
      "Ġmistake": 4739,
      "Ġyesterday": 4740,
      "Ġmember": 4741,
      "ĠMaj": 4742,
      "Ġgray": 4743,
      "Ġcompanions": 4744,
      "hind": 4745,
      "enes": 4746,
      "Ġdate": 4747,
      "Ġchanges": 4748,
      "Ġgrounds": 4749,
      "Ġfairly": 4750,
      "Ġsounds": 4751,
      "Ġbranch": 4752,
      "eddak": 4753,
      "gener": 4754,
      "Ġthunder": 4755,
      "ĠMary": 4756,
      "ĠOliver": 4757,
      "Ġsuggested": 4758,
      "Ġestablished": 4759,
      "enge": 4760,
      "ĠStreet": 4761,
      "power": 4762,
      "inity": 4763,
      "bert": 4764,
      "Ġbrown": 4765,
      "Ġremarked": 4766,
      "Ġstrike": 4767,
      "happy": 4768,
      "mble": 4769,
      "rig": 4770,
      "ulate": 4771,
      "Ġmaintain": 4772,
      "SCEN": 4773,
      "Ġwore": 4774,
      "abs": 4775,
      "Ġtalked": 4776,
      "ousin": 4777,
      "Ġreasons": 4778,
      "ustomed": 4779,
      "Ġfellows": 4780,
      "Ġsmooth": 4781,
      "bow": 4782,
      "comple": 4783,
      "Ġfruit": 4784,
      "!-": 4785,
      "itate": 4786,
      "Ġanaly": 4787,
      "umes": 4788,
      "ĠCH": 4789,
      "young": 4790,
      "ology": 4791,
      "Ġassert": 4792,
      "LY": 4793,
      "Ġspec": 4794,
      "ĠWilson": 4795,
      "Ġvoices": 4796,
      "mos": 4797,
      "Ġpounds": 4798,
      "Ġsmiled": 4799,
      "Ġtrail": 4800,
      "AB": 4801,
      "zing": 4802,
      "Ġcell": 4803,
      "vert": 4804,
      "ĠSil": 4805,
      "ĠĠĠĠĠĠĠĠĠĠĠĠĠĠĠĠĠĠĠĠĠĠĠ": 4806,
      "Ġgrim": 4807,
      "Ġruin": 4808,
      "Ġanxious": 4809,
      "ACT": 4810,
      "iqu": 4811,
      "oms": 4812,
      "Ġgreatly": 4813,
      "expl": 4814,
      "Ġexped": 4815,
      "yl": 4816,
      "ĉĠĠĠĠĠĠĠĠĠĠĠĠĠĠĠĠĠ": 4817,
      "Ġgrown": 4818,
      "Ġflat": 4819,
      "Ġvisible": 4820,
      "circ": 4821,
      "ĠMars": 4822,
      "Ġstead": 4823,
      "ĠIV": 4824,
      "ĠAnt": 4825,
      "uma": 4826,
      "Ġgrasp": 4827,
      "Ġavoid": 4828,
      "ĠCharles": 4829,
      "fortunate": 4830,
      "ancholy": 4831,
      "Ġflo": 4832,
      "comfort": 4833,
      "Ġcredit": 4834,
      "estic": 4835,
      "Ġshop": 4836,
      "oft": 4837,
      "ĠGreat": 4838,
      "Ġcool": 4839,
      "ldom": 4840,
      "also": 4841,
      "ĠChallenger": 4842,
      "Ġdistribut": 4843,
      "Ġimmediate": 4844,
      "overy": 4845,
      "Ġlimits": 4846,
      "Ġsigh": 4847,
      "enough": 4848,
      "Ġtower": 4849,
      "Ġplant": 4850,
      "ecause": 4851,
      "however": 4852,
      "Ġfighting": 4853,
      "Ġconcerned": 4854,
      "Ġnav": 4855,
      "Ġchest": 4856,
      "Ġfoolish": 4857,
      "OW": 4858,
      "hension": 4859,
      "Ġorders": 4860,
      "heard": 4861,
      "Ġune": 4862,
      "Ġcompre": 4863,
      "experience": 4864,
      "lee": 4865,
      "Ġoccupied": 4866,
      "bits": 4867,
      "Ġraise": 4868,
      "Ġdetails": 4869,
      "until": 4870,
      "ĠMicawber": 4871,
      "Ġgather": 4872,
      "ĠMal": 4873,
      "Ġrushed": 4874,
      "AV": 4875,
      "Ġworking": 4876,
      "Ġinternal": 4877,
      "Ġlands": 4878,
      "Ġholy": 4879,
      "Ġbecoming": 4880,
      "Ġcontains": 4881,
      "ulated": 4882,
      "Ġglory": 4883,
      "Ġgla": 4884,
      "stru": 4885,
      "illy": 4886,
      "olution": 4887,
      "Ġperception": 4888,
      "Ġinteresting": 4889,
      "Ġframe": 4890,
      "Qu": 4891,
      "zy": 4892,
      "Ġreward": 4893,
      "aces": 4894,
      "Ġleading": 4895,
      "finite": 4896,
      "otes": 4897,
      "Ġobjective": 4898,
      "Ġguide": 4899,
      "Ġapproach": 4900,
      "took": 4901,
      "Ġfalling": 4902,
      "ĠKorak": 4903,
      "moment": 4904,
      "ains": 4905,
      "Ġemer": 4906,
      "white": 4907,
      "Ġregular": 4908,
      "Ġsacrif": 4909,
      "Ġconvey": 4910,
      "ointment": 4911,
      "better": 4912,
      "Ġhopes": 4913,
      "SCENE": 4914,
      "Ġwin": 4915,
      "Ġmat": 4916,
      "Ġpolitical": 4917,
      "Ġwasn": 4918,
      "ilty": 4919,
      "pelled": 4920,
      "umph": 4921,
      "sper": 4922,
      "Ġcateg": 4923,
      "ĠRome": 4924,
      "INE": 4925,
      "Ġadmitted": 4926,
      "panied": 4927,
      "Ġignorant": 4928,
      "ĠMeriem": 4929,
      "mal": 4930,
      "name": 4931,
      "tell": 4932,
      "Ġvig": 4933,
      "Ġconsist": 4934,
      "Ġmoments": 4935,
      "atives": 4936,
      "urity": 4937,
      "Ġcoach": 4938,
      "Ġmax": 4939,
      "Ġrust": 4940,
      "Ġwhenever": 4941,
      "Ġsomebody": 4942,
      "ips": 4943,
      "ission": 4944,
      "Ġintention": 4945,
      "ĠVery": 4946,
      "Ġsucceeded": 4947,
      "Ġtent": 4948,
      "Ġaut": 4949,
      "ette": 4950,
      "osen": 4951,
      "Ġ19": 4952,
      "Ġrelief": 4953,
      "Ġgrowing": 4954,
      "rupted": 4955,
      "Ġleaped": 4956,
      "Ġahead": 4957,
      "Ġpick": 4958,
      "icient": 4959,
      "ores": 4960,
      "--\"": 4961,
      "pract": 4962,
      "ORD": 4963,
      "justice": 4964,
      "Ġpause": 4965,
      "hers": 4966,
      "Ġimpression": 4967,
      "Ġfinding": 4968,
      "Ġcircumstance": 4969,
      "Ġmortal": 4970,
      "dou": 4971,
      "eem": 4972,
      "Ġtired": 4973,
      "Ġinhabit": 4974,
      "armed": 4975,
      "ids": 4976,
      "Ġcarriage": 4977,
      "myself": 4978,
      "done": 4979,
      "Ġwicked": 4980,
      "Ġnon": 4981,
      "Ġsubs": 4982,
      "Ġslept": 4983,
      "Ġprof": 4984,
      "Ġpoison": 4985,
      "Ġmarry": 4986,
      "ĠChristian": 4987,
      "pen": 4988,
      "Ġcro": 4989,
      "ounce": 4990,
      "Ġillust": 4991,
      "woman": 4992,
      "Ġta": 4993,
      "Ġhal": 4994,
      "unted": 4995,
      "particul": 4996,
      "Ġdetermination": 4997,
      "AY": 4998,
      "Ġimpl": 4999,
      "eyes": 5000,
      "Ġsensation": 5001,
      "both": 5002,
      "ole": 5003,
      "Ġdressed": 5004,
      "Ġmankind": 5005,
      "awyer": 5006,
      "turned": 5007,
      "Look": 5008,
      "ĠHad": 5009,
      "eling": 5010,
      "Ġdesper": 5011,
      "De": 5012,
      "rs": 5013,
      "Ġbones": 5014,
      "ams": 5015,
      "herlock": 5016,
      "Ġreader": 5017,
      "character": 5018,
      "ĠBarsoom": 5019,
      "arted": 5020,
      "Ġchain": 5021,
      "Ġregion": 5022,
      "Ġshadows": 5023,
      "Ġdeny": 5024,
      "ĠArab": 5025,
      "Ġsupreme": 5026,
      "Are": 5027,
      "Ġagreed": 5028,
      "ĠNorth": 5029,
      ":-": 5030,
      "RIN": 5031,
      "ipped": 5032,
      "sim": 5033,
      "umn": 5034,
      "Ġwound": 5035,
      "Ġshr": 5036,
      "Ġalter": 5037,
      "appro": 5038,
      "Ch": 5039,
      "Ġtim": 5040,
      "Ġange": 5041,
      "Ġsoldier": 5042,
      "_,": 5043,
      "uable": 5044,
      "intell": 5045,
      "ĠUnited": 5046,
      "Ġproc": 5047,
      "Ġcharacters": 5048,
      "Ġtravel": 5049,
      "Ġwhisper": 5050,
      "Ġhidden": 5051,
      "cast": 5052,
      "ĠBl": 5053,
      "Ġsmiling": 5054,
      "Ġsuffered": 5055,
      "Ġerror": 5056,
      "Ġ15": 5057,
      "Ġwants": 5058,
      "Ġtrial": 5059,
      "rounded": 5060,
      "Ġlack": 5061,
      "acqu": 5062,
      "return": 5063,
      "sequently": 5064,
      "Ġtur": 5065,
      "Ġhut": 5066,
      "Ġordered": 5067,
      "Ġperpet": 5068,
      "Ġcommer": 5069,
      "pleasure": 5070,
      "Ġobtain": 5071,
      "Ġthrust": 5072,
      "Ġdisappeared": 5073,
      "ĠLorry": 5074,
      "Ġescaped": 5075,
      "AC": 5076,
      "line": 5077,
      "Ġtail": 5078,
      "cts": 5079,
      "rol": 5080,
      "ĠEm": 5081,
      "Ġgeneration": 5082,
      "chant": 5083,
      "ĠScot": 5084,
      "nel": 5085,
      "pent": 5086,
      "ilities": 5087,
      "Ġprey": 5088,
      "Ġblame": 5089,
      "exam": 5090,
      "born": 5091,
      "eff": 5092,
      "Ġbon": 5093,
      "once": 5094,
      "Ġpage": 5095,
      "anything": 5096,
      "Ġexpressed": 5097,
      "Ġdawn": 5098,
      "ĠWalter": 5099,
      "Ġge": 5100,
      "Ġaspect": 5101,
      "Ġweary": 5102,
      "Ġsex": 5103,
      "ulse": 5104,
      "Ġtele": 5105,
      "Ġrequest": 5106,
      "Ġacknow": 5107,
      "Ġsacred": 5108,
      "ĠOR": 5109,
      "Ġglanced": 5110,
      "Ġtitle": 5111,
      "diff": 5112,
      "Ġascend": 5113,
      "Ġalike": 5114,
      "beaut": 5115,
      "ĠWhile": 5116,
      "Ġamb": 5117,
      "within": 5118,
      "expected": 5119,
      "ĠHowever": 5120,
      "Ġtelling": 5121,
      "acious": 5122,
      "Ġbeings": 5123,
      "Ġprice": 5124,
      "Ġentrance": 5125,
      "Ġbusy": 5126,
      "mor": 5127,
      "having": 5128,
      "peare": 5129,
      "Ġfears": 5130,
      "Mrs": 5131,
      "Ġpursued": 5132,
      "Ġnoticed": 5133,
      "Ġseated": 5134,
      "Ġmanners": 5135,
      "Ġelect": 5136,
      "Ġterrif": 5137,
      "Ġapplied": 5138,
      "Ġqualities": 5139,
      "Ġnaked": 5140,
      "Ġsevent": 5141,
      "agon": 5142,
      "ĠTherefore": 5143,
      "Ġpurposes": 5144,
      "Ġexcited": 5145,
      "Ġdistinguished": 5146,
      "Ind": 5147,
      "Yet": 5148,
      "Ġoath": 5149,
      "arse": 5150,
      "Ġga": 5151,
      "Ġthrone": 5152,
      "Ġproblem": 5153,
      "Per": 5154,
      "Ġease": 5155,
      "acles": 5156,
      "Ġdistinction": 5157,
      "Ġcounter": 5158,
      "vis": 5159,
      "Ġbag": 5160,
      "idity": 5161,
      "Ġanger": 5162,
      "Ġimpress": 5163,
      "angs": 5164,
      "Ġsleeping": 5165,
      "Ġfifteen": 5166,
      "Ġslaves": 5167,
      "knowledge": 5168,
      "ĠSunday": 5169,
      "Ġcave": 5170,
      "Ġrate": 5171,
      "ranged": 5172,
      "Ġsentiment": 5173,
      "Ġsigns": 5174,
      "small": 5175,
      "Ġintelligence": 5176,
      "find": 5177,
      "Ġfought": 5178,
      "ĠMen": 5179,
      "Ġinstit": 5180,
      "Ġmajor": 5181,
      "Ġpossessed": 5182,
      "Ġcomfortable": 5183,
      "Ġnegative": 5184,
      "oked": 5185,
      "icism": 5186,
      "ĠSouth": 5187,
      "aphys": 5188,
      "Ġcuriosity": 5189,
      "Ġinterested": 5190,
      "Ġsoldiers": 5191,
      "Ġsyllog": 5192,
      "Ġrom": 5193,
      "Ġhappens": 5194,
      "ĠDejah": 5195,
      "Ġstones": 5196,
      "ĠSim": 5197,
      "Ġalarm": 5198,
      "Ġwhence": 5199,
      "ĠGree": 5200,
      "ĠEn": 5201,
      "Ġclot": 5202,
      "Ġnamely": 5203,
      "love": 5204,
      "went": 5205,
      "Ġtempt": 5206,
      "Ġconqu": 5207,
      "ĠCal": 5208,
      "ĠRichard": 5209,
      "Ġexchan": 5210,
      "III": 5211,
      "Ġhoped": 5212,
      "black": 5213,
      "utive": 5214,
      "Ġsmell": 5215,
      "liament": 5216,
      "paragraph": 5217,
      "hands": 5218,
      "Ġaudience": 5219,
      "Ġdig": 5220,
      "Ġprecise": 5221,
      "Ġdefinite": 5222,
      "hon": 5223,
      "Ġmathemat": 5224,
      "Ġfled": 5225,
      "Ġdying": 5226,
      "usual": 5227,
      "Ġrare": 5228,
      "ĠPeggotty": 5229,
      "GH": 5230,
      "Tw": 5231,
      "ĠMa": 5232,
      "Ġspite": 5233,
      "Ġbuy": 5234,
      "Ġopinions": 5235,
      "dles": 5236,
      "hamed": 5237,
      "asing": 5238,
      "Ġrank": 5239,
      "Ġobsc": 5240,
      "Ġcarefully": 5241,
      "Ġneeds": 5242,
      "Ġexamined": 5243,
      "Ġcandle": 5244,
      "Ġpopular": 5245,
      "uals": 5246,
      "Ġflower": 5247,
      "Ġconstant": 5248,
      "Ġsuffering": 5249,
      "person": 5250,
      "Ġcook": 5251,
      "semb": 5252,
      "ulf": 5253,
      "aws": 5254,
      "proper": 5255,
      "Ġlisten": 5256,
      "asions": 5257,
      "andon": 5258,
      "ĠWest": 5259,
      "Ġsmaller": 5260,
      "Ġpatient": 5261,
      "NY": 5262,
      "Ġassume": 5263,
      "Ġdivision": 5264,
      "Ġouter": 5265,
      "LES": 5266,
      "sch": 5267,
      "trans": 5268,
      "reck": 5269,
      "umble": 5270,
      "ĠCongress": 5271,
      "perfect": 5272,
      "appear": 5273,
      "Ġincident": 5274,
      "Ġabsurd": 5275,
      "Ġobey": 5276,
      "ĠHall": 5277,
      "Ġarmed": 5278,
      "Ġexcitement": 5279,
      "grace": 5280,
      "UD": 5281,
      "wal": 5282,
      "Ġice": 5283,
      "Ġshows": 5284,
      "derer": 5285,
      "Ġcalling": 5286,
      "Ġhumble": 5287,
      "Ġlaughing": 5288,
      "ĠPerhaps": 5289,
      "Ġfurnished": 5290,
      "Ġkings": 5291,
      "ĠJust": 5292,
      "Ġresults": 5293,
      "Ġclouds": 5294,
      "Ġacquaintance": 5295,
      "taken": 5296,
      "icy": 5297,
      "Ġassure": 5298,
      "rust": 5299,
      "Ġgathered": 5300,
      "Ġrequires": 5301,
      "Never": 5302,
      "eding": 5303,
      "Ġreflection": 5304,
      "Ġdelicate": 5305,
      "Ġignorance": 5306,
      "ECT": 5307,
      "oser": 5308,
      "Ġjew": 5309,
      "Ġgrate": 5310,
      "Ġkingdom": 5311,
      "boat": 5312,
      "Ġadmiration": 5313,
      "Ġbla": 5314,
      "ĠCarthoris": 5315,
      "eled": 5316,
      "ĠIndian": 5317,
      "fam": 5318,
      "ois": 5319,
      "ugg": 5320,
      "vy": 5321,
      "Ġbul": 5322,
      "Ġmental": 5323,
      "Ġeast": 5324,
      "ĠSince": 5325,
      "Ġdeed": 5326,
      "Ġknock": 5327,
      "Ġours": 5328,
      "Ġrooms": 5329,
      "Ġdignity": 5330,
      "Ġnigger": 5331,
      "gone": 5332,
      "iation": 5333,
      "iverse": 5334,
      "wers": 5335,
      "Ġwest": 5336,
      "ĠApes": 5337,
      "ĠGeneral": 5338,
      "Ġreflect": 5339,
      "Ġcurrent": 5340,
      "Ġcalcul": 5341,
      "Holmes": 5342,
      "ds": 5343,
      "each": 5344,
      "Ġnarr": 5345,
      "ĠAg": 5346,
      "Ġcontained": 5347,
      "duce": 5348,
      "Ġsuppl": 5349,
      "Ġprincipal": 5350,
      "ĠAlan": 5351,
      "ĠOld": 5352,
      "Ġassumed": 5353,
      "Again": 5354,
      "onel": 5355,
      "Ġhorrible": 5356,
      "Ġdrunk": 5357,
      "....": 5358,
      "uddenly": 5359,
      "Ġstairs": 5360,
      "Ġamid": 5361,
      "ueen": 5362,
      "Ġconscience": 5363,
      "Ġstorm": 5364,
      "ĠThose": 5365,
      "Ġmiserable": 5366,
      "Ġprovided": 5367,
      "rous": 5368,
      "Ġsouls": 5369,
      "Ġmodern": 5370,
      "Ġmidnight": 5371,
      "Ġsuggest": 5372,
      "Ġburning": 5373,
      "pse": 5374,
      "Ġsons": 5375,
      "Ġshaking": 5376,
      "lessly": 5377,
      "lier": 5378,
      "Ġcaus": 5379,
      "Ġmonarch": 5380,
      "ĠNothing": 5381,
      "Ġphr": 5382,
      "Ġnodd": 5383,
      "Ġstrict": 5384,
      "Ġdrive": 5385,
      "Ġapparently": 5386,
      "Ġinquiry": 5387,
      "Ġsufficiently": 5388,
      "Ġprofession": 5389,
      "Second": 5390,
      "dig": 5391,
      "mean": 5392,
      "Ġlabor": 5393,
      "Ġmajesty": 5394,
      "Ġhind": 5395,
      "Ġpleasures": 5396,
      "ĠJoe": 5397,
      "Ġlimit": 5398,
      "Ġhanging": 5399,
      "lay": 5400,
      "inion": 5401,
      "Ġwholly": 5402,
      "Ġgradually": 5403,
      "phere": 5404,
      "ĠBen": 5405,
      "conce": 5406,
      "Ġfamous": 5407,
      "10": 5408,
      "cest": 5409,
      "Ġarose": 5410,
      "ĠMc": 5411,
      "Ġdelay": 5412,
      "mist": 5413,
      "mag": 5414,
      "tor": 5415,
      "Ġhunt": 5416,
      "Ġimage": 5417,
      "div": 5418,
      "vals": 5419,
      "Ġpromised": 5420,
      "MAR": 5421,
      "mid": 5422,
      "Ġpill": 5423,
      "Ġunto": 5424,
      "Ġserved": 5425,
      "Ġproperly": 5426,
      "Ġpulled": 5427,
      "mosphere": 5428,
      "Ġplainly": 5429,
      "esar": 5430,
      "ospit": 5431,
      "Ġproject": 5432,
      "Ġremind": 5433,
      "comp": 5434,
      "Ġlovely": 5435,
      "Ġaffair": 5436,
      "Ġdreams": 5437,
      "cientific": 5438,
      "Ġpoetry": 5439,
      "wild": 5440,
      "Ġconven": 5441,
      "Ġunable": 5442,
      "Ġunjust": 5443,
      "Ġtrack": 5444,
      "general": 5445,
      "Ġeternal": 5446,
      "verted": 5447,
      "Ġwaste": 5448,
      "ads": 5449,
      "ĠAh": 5450,
      "estrade": 5451,
      "erper": 5452,
      "Ġdoctr": 5453,
      "Ġscr": 5454,
      "Ġcomposed": 5455,
      "Ġrecord": 5456,
      "cript": 5457,
      "cribed": 5458,
      "oard": 5459,
      "rece": 5460,
      "stead": 5461,
      "ĠHorn": 5462,
      "Ġexha": 5463,
      "onds": 5464,
      "pled": 5465,
      "ĠJew": 5466,
      "Ġobvious": 5467,
      "Ġremaining": 5468,
      "understanding": 5469,
      "Ġaffected": 5470,
      "unch": 5471,
      "Ġworn": 5472,
      "Ġlaying": 5473,
      "ĠOnly": 5474,
      "Ġabroad": 5475,
      "Ġobservation": 5476,
      "headed": 5477,
      "different": 5478,
      "morning": 5479,
      "nds": 5480,
      "Ġhit": 5481,
      "Ġlover": 5482,
      "Ġfalls": 5483,
      "okoff": 5484,
      "Ġessential": 5485,
      "affect": 5486,
      "ĠSherlock": 5487,
      "ĠLook": 5488,
      "ĠIts": 5489,
      "Ġobserv": 5490,
      "Ġcraft": 5491,
      "esides": 5492,
      "Ġpubl": 5493,
      "ato": 5494,
      "Ġsees": 5495,
      "Ġcrossed": 5496,
      "Can": 5497,
      "Ġ<": 5498,
      "Ġocean": 5499,
      "ref": 5500,
      "Ġcries": 5501,
      "Ġmelancholy": 5502,
      "stitution": 5503,
      "Lord": 5504,
      "jun": 5505,
      "sil": 5506,
      "ule": 5507,
      "umption": 5508,
      "Ġshade": 5509,
      "Ġspark": 5510,
      "Ġparties": 5511,
      "Ġresumed": 5512,
      "Ġsche": 5513,
      "ceptions": 5514,
      "Ġreturning": 5515,
      "Ġmistress": 5516,
      "ICK": 5517,
      "Ġhole": 5518,
      "Ġtight": 5519,
      "Ġtort": 5520,
      "Ġlan": 5521,
      "Ġdisposition": 5522,
      "Ġwings": 5523,
      "urance": 5524,
      "Ġdirected": 5525,
      "rilliant": 5526,
      "Ġjealous": 5527,
      "OS": 5528,
      "Ġbust": 5529,
      "Ġprofound": 5530,
      "Ġturns": 5531,
      "STA": 5532,
      "Ġfix": 5533,
      "Ġheels": 5534,
      "Ġsell": 5535,
      "Ġseldom": 5536,
      "Ġmaybe": 5537,
      "hens": 5538,
      "Ġinterests": 5539,
      "imag": 5540,
      "Ġeffects": 5541,
      "years": 5542,
      "OP": 5543,
      "dep": 5544,
      "liness": 5545,
      "Ġ^": 5546,
      "Ġcoast": 5547,
      "Ġremembered": 5548,
      "coat": 5549,
      "Ġrecognized": 5550,
      "Ġefforts": 5551,
      "ige": 5552,
      "public": 5553,
      "isions": 5554,
      "Ġswear": 5555,
      "Ġfrightened": 5556,
      "satisf": 5557,
      "Even": 5558,
      "Upon": 5559,
      "Ġdesert": 5560,
      "Ġmercy": 5561,
      "Ġprotect": 5562,
      "Ġprevious": 5563,
      "Ġjoined": 5564,
      "otted": 5565,
      "ĠWas": 5566,
      "Ġaltern": 5567,
      "aks": 5568,
      "ĠNuma": 5569,
      "Ġinstinct": 5570,
      "hered": 5571,
      "ales": 5572,
      "icken": 5573,
      "ĠRob": 5574,
      "Ġvision": 5575,
      "ĠSawyer": 5576,
      "ĠPres": 5577,
      "Ġcontribut": 5578,
      "lying": 5579,
      "pel": 5580,
      "ĠWhe": 5581,
      "Ġprospect": 5582,
      "Ġsympathy": 5583,
      "Miss": 5584,
      "inally": 5585,
      "stri": 5586,
      "Ġimpat": 5587,
      "Ġbaby": 5588,
      "ege": 5589,
      "Ġlamp": 5590,
      "Ġdiscovery": 5591,
      "asmuch": 5592,
      "Ġrear": 5593,
      "Ġforbid": 5594,
      "lace": 5595,
      "Ġmerry": 5596,
      "Ġjoin": 5597,
      "human": 5598,
      "oa": 5599,
      "xion": 5600,
      "lebr": 5601,
      "Ġgained": 5602,
      "Ġupward": 5603,
      "olid": 5604,
      "closed": 5605,
      "Shall": 5606,
      "effect": 5607,
      "Ġstret": 5608,
      "axon": 5609,
      "Ġviolent": 5610,
      "HAM": 5611,
      "char": 5612,
      "fig": 5613,
      "Ġech": 5614,
      "Ġcommitted": 5615,
      "Ġmillion": 5616,
      "inated": 5617,
      "isters": 5618,
      "Ġobst": 5619,
      "Ġdragged": 5620,
      "Ġimmense": 5621,
      "Ġfold": 5622,
      "Ġplenty": 5623,
      "Ġinstruct": 5624,
      "pons": 5625,
      "pret": 5626,
      "Ġlest": 5627,
      "Ġdespair": 5628,
      "Ġadventure": 5629,
      "farge": 5630,
      "uated": 5631,
      "seemed": 5632,
      "Ġsubl": 5633,
      "ĠMonsieur": 5634,
      "Ġrode": 5635,
      "real": 5636,
      "Ġrolled": 5637,
      "saw": 5638,
      "Ġhollow": 5639,
      "ĠSat": 5640,
      "ĠDid": 5641,
      "Ġchosen": 5642,
      "Ġintr": 5643,
      "Ġdriven": 5644,
      "Ġessence": 5645,
      "Ġinhabitants": 5646,
      "Ġpicked": 5647,
      "Ġastonishment": 5648,
      "oqu": 5649,
      "Ġming": 5650,
      "Ġghost": 5651,
      "Ġvac": 5652,
      "Ġshake": 5653,
      "Ġresist": 5654,
      "ĠThuv": 5655,
      "Ġlearning": 5656,
      "Ġdeeply": 5657,
      "gentleman": 5658,
      "Sh": 5659,
      "aves": 5660,
      "Ġlaughter": 5661,
      "icity": 5662,
      "Ġarrest": 5663,
      "Ġthanks": 5664,
      "Ġmistaken": 5665,
      "Ġaven": 5666,
      "Ġcoward": 5667,
      "Ġguilty": 5668,
      "Ġrat": 5669,
      "asted": 5670,
      "offe": 5671,
      "ranc": 5672,
      "Ġchim": 5673,
      "ERS": 5674,
      "Ġhotel": 5675,
      "Ġconvinced": 5676,
      "Ġhorn": 5677,
      "Ġshud": 5678,
      "ofty": 5679,
      "ograph": 5680,
      "obser": 5681,
      "Ġforever": 5682,
      "Ġtransp": 5683,
      "LET": 5684,
      "Ġeggs": 5685,
      "hus": 5686,
      "Ġvers": 5687,
      "Ġrude": 5688,
      "Ġgets": 5689,
      "Ġforehead": 5690,
      "Ġloves": 5691,
      "sent": 5692,
      "ester": 5693,
      "ĠSIR": 5694,
      "Ġsovere": 5695,
      "Ġrealized": 5696,
      "Ġdrove": 5697,
      "Ġneighbour": 5698,
      "existence": 5699,
      "BE": 5700,
      "creat": 5701,
      "Ġstretched": 5702,
      "Ġorn": 5703,
      "pless": 5704,
      "Ġregards": 5705,
      "Ġcorrid": 5706,
      "Ġaccompanied": 5707,
      "Ġlonely": 5708,
      "585": 5709,
      "Ġwretched": 5710,
      "Ġcities": 5711,
      "Ġappointed": 5712,
      "Ġsupper": 5713,
      "Ġlighted": 5714,
      "Ġgracious": 5715,
      "Ġteach": 5716,
      "ĠUpon": 5717,
      "ĠMat": 5718,
      "usions": 5719,
      "Ġsport": 5720,
      "Ġsettle": 5721,
      "Ġdischar": 5722,
      "Ġaddressed": 5723,
      "strong": 5724,
      "Ġpaused": 5725,
      "Ġcrept": 5726,
      "inv": 5727,
      "Ġcig": 5728,
      "omach": 5729,
      "Ġgently": 5730,
      "ĠSomet": 5731,
      "Ġunconscious": 5732,
      "ĠRuss": 5733,
      "TIO": 5734,
      "Ġcarrying": 5735,
      ".:.:.:.:": 5736,
      "Ġtrembling": 5737,
      "ĠToots": 5738,
      "Ġswell": 5739,
      "Ġwarrior": 5740,
      "ashington": 5741,
      "ares": 5742,
      "Ġborne": 5743,
      "owards": 5744,
      "Ġarise": 5745,
      "ENS": 5746,
      "Ġmarks": 5747,
      "Ġpursuit": 5748,
      "NYV": 5749,
      "xed": 5750,
      "Ãĸ": 5751,
      "idents": 5752,
      "ĠSpan": 5753,
      "uls": 5754,
      "Ġspare": 5755,
      "Ġdisplay": 5756,
      "above": 5757,
      "ĠKÃĸ": 5758,
      "Ġdrift": 5759,
      "Ġquietly": 5760,
      ">>>": 5761,
      ">>>>>": 5762,
      "ĠKÃĸNYV": 5763,
      "Ġstair": 5764,
      "ĠStill": 5765,
      "Ġwishes": 5766,
      "ĠQueen": 5767,
      "Ġdescription": 5768,
      "ummerlee": 5769,
      "gments": 5770,
      "Ġthence": 5771,
      "Ġresc": 5772,
      "Ġfinds": 5773,
      "Ġlikewise": 5774,
      "Ġperman": 5775,
      "ĠJudge": 5776,
      "Ġnumerous": 5777,
      "account": 5778,
      "Ġelder": 5779,
      "sight": 5780,
      "Ġpermitted": 5781,
      "Ġblank": 5782,
      "close": 5783,
      "Ġgirls": 5784,
      "Ġquarrel": 5785,
      "Ġutterly": 5786,
      ":)": 5787,
      "Ġfo": 5788,
      "Ġfed": 5789,
      "Ġuseless": 5790,
      "Ġholds": 5791,
      "brought": 5792,
      "itc": 5793,
      "Ġfeared": 5794,
      "Ġfarm": 5795,
      "Ġarticle": 5796,
      "Ġmessage": 5797,
      "ĠMajor": 5798,
      "steps": 5799,
      "Ġcompass": 5800,
      "Ġretired": 5801,
      "Ġutmost": 5802,
      "Ġventure": 5803,
      "Ġrad": 5804,
      "ialect": 5805,
      "Ġclosely": 5806,
      "ĠTwo": 5807,
      "fire": 5808,
      "gest": 5809,
      "ik": 5810,
      "Ġyonder": 5811,
      "ĠAug": 5812,
      "ĠĠĠĠĠĠĠĠĠĠĠĠĠĠĠĠĠĠĠĠĠĠĠĠĠĠĠĠĠĠĠ": 5813,
      "ĠLuc": 5814,
      "Ġindign": 5815,
      "Ġexpense": 5816,
      "Ġreadily": 5817,
      "Ġsteep": 5818,
      "Ġvariety": 5819,
      "ĠBrown": 5820,
      "Ġinsp": 5821,
      "Ġshining": 5822,
      "ĠGr": 5823,
      "according": 5824,
      "Ġenergy": 5825,
      "fellow": 5826,
      "rated": 5827,
      "erby": 5828,
      "Ġnice": 5829,
      "Ġprepar": 5830,
      "Ġswung": 5831,
      "Ġminister": 5832,
      "Ġneeded": 5833,
      "Ġcharm": 5834,
      "hearted": 5835,
      "Ġlock": 5836,
      "ilp": 5837,
      "Ġabandon": 5838,
      "gedy": 5839,
      "Ġmerit": 5840,
      "Ġinstantly": 5841,
      "kespeare": 5842,
      "Ġlust": 5843,
      "ĠWinkle": 5844,
      "ĠPRO": 5845,
      "Ġgoodness": 5846,
      "Ġimprove": 5847,
      "spr": 5848,
      "Ġdang": 5849,
      "urs": 5850,
      "does": 5851,
      "Ġmild": 5852,
      "Ġcord": 5853,
      "Ġheap": 5854,
      "Ġnights": 5855,
      "Ġsetting": 5856,
      "Ġdelivered": 5857,
      "Ġexperi": 5858,
      "Ġpains": 5859,
      "Con": 5860,
      "NE": 5861,
      "Ġexception": 5862,
      "Ġrecall": 5863,
      "Ġjudged": 5864,
      "Ġlabour": 5865,
      "Ġmysterious": 5866,
      "Ġsuspicion": 5867,
      "mir": 5868,
      "inent": 5869,
      "Ġdish": 5870,
      "ĠTell": 5871,
      "ceptible": 5872,
      "Ġkindly": 5873,
      "Thus": 5874,
      "Ġprisoners": 5875,
      "Ġemployment": 5876,
      "May": 5877,
      "ett": 5878,
      "Ġfacult": 5879,
      "Ġunfortunate": 5880,
      "Ġregret": 5881,
      "Ġships": 5882,
      "Ġfaithful": 5883,
      "Ġidle": 5884,
      "';": 5885,
      "ĠMany": 5886,
      "indeed": 5887,
      "Ġvague": 5888,
      "ĠPol": 5889,
      "Ġworship": 5890,
      "Ġartist": 5891,
      "Ġsentence": 5892,
      "Ġtemple": 5893,
      "Ġhunting": 5894,
      "Ġmate": 5895,
      "Ġbetray": 5896,
      "Ġadvice": 5897,
      "fortune": 5898,
      "Nothing": 5899,
      "Ġsynthesis": 5900,
      "bout": 5901,
      "mis": 5902,
      "Ġbeheld": 5903,
      "ilarly": 5904,
      "Ġprofit": 5905,
      "ĠNever": 5906,
      "Ġplans": 5907,
      "Ġtells": 5908,
      "Ġhighly": 5909,
      "Ġcheek": 5910,
      "Ġexcuse": 5911,
      "Ġfetch": 5912,
      "Ġcrew": 5913,
      "Ġdisposed": 5914,
      "ĠJu": 5915,
      "passed": 5916,
      "large": 5917,
      "mus": 5918,
      "Ġhint": 5919,
      "left": 5920,
      "top": 5921,
      "ĠCount": 5922,
      "ciences": 5923,
      "Ġsecure": 5924,
      "Ġrevenge": 5925,
      "Ġfaculties": 5926,
      "ĠMoor": 5927,
      "Ġvoy": 5928,
      "ROM": 5929,
      "Ġconceive": 5930,
      "mas": 5931,
      "Ġmeat": 5932,
      "vention": 5933,
      "Ġawake": 5934,
      "box": 5935,
      "given": 5936,
      "sense": 5937,
      "Ġtot": 5938,
      "Ġdefect": 5939,
      "Ġdeliber": 5940,
      "Ġaccustomed": 5941,
      "tending": 5942,
      "Ġsubjective": 5943,
      "Ġlegal": 5944,
      "DUKE": 5945,
      "rary": 5946,
      "inqu": 5947,
      "edy": 5948,
      "cel": 5949,
      "ĠHar": 5950,
      "Ġspear": 5951,
      "Ġended": 5952,
      "Ġgroup": 5953,
      "pol": 5954,
      "ifference": 5955,
      "ĠWar": 5956,
      "Ġnewsp": 5957,
      "Ġlights": 5958,
      "Ġsurrounded": 5959,
      "Ġpriest": 5960,
      "Ġdestruction": 5961,
      "Every": 5962,
      "Ġdeliver": 5963,
      "Ġnoon": 5964,
      "Ġyounger": 5965,
      "Ġcere": 5966,
      "Ġwondered": 5967,
      "tem": 5968,
      "Ġprosper": 5969,
      "owned": 5970,
      "Ġolder": 5971,
      "shine": 5972,
      "Ġblacks": 5973,
      "Ġstarting": 5974,
      "Ġflying": 5975,
      "Ġwidow": 5976,
      "CES": 5977,
      "GL": 5978,
      "hast": 5979,
      "Ġnovel": 5980,
      "Ġliqu": 5981,
      "Ġliked": 5982,
      "Ġresolved": 5983,
      "Ġaccur": 5984,
      "Ġdedu": 5985,
      "Ġ(*": 5986,
      "Ġvictim": 5987,
      "Ġattribute": 5988,
      "Ġbasis": 5989,
      "sus": 5990,
      "Ġfearful": 5991,
      "Ġdogs": 5992,
      "Just": 5993,
      "hundred": 5994,
      "ws": 5995,
      "Ġhabits": 5996,
      "Ġcliff": 5997,
      "Ġskill": 5998,
      "Ġlimbs": 5999,
      "Ġslipped": 6000,
      "wl": 6001,
      "ĠAre": 6002,
      "ĠPeter": 6003,
      "Ġplun": 6004,
      "Ġmoist": 6005,
      "Ġbringing": 6006,
      "Ġcausality": 6007,
      "full": 6008,
      "Ġnotes": 6009,
      "ĠOnce": 6010,
      "Ġrepresented": 6011,
      "Ġagreeable": 6012,
      "mem": 6013,
      "Ġfoul": 6014,
      "ĠBel": 6015,
      "umbled": 6016,
      "ĠFurther": 6017,
      "Ġhanded": 6018,
      "sued": 6019,
      "mediate": 6020,
      "sembly": 6021,
      ".]": 6022,
      "Ġanyway": 6023,
      "gram": 6024,
      "ĠIndeed": 6025,
      "commend": 6026,
      "Ġblessed": 6027,
      "Ġincreased": 6028,
      "worthy": 6029,
      "Ġfoundation": 6030,
      "ĠThom": 6031,
      "Ġrestra": 6032,
      "Arnot": 6033,
      "Ġdisease": 6034,
      "Ġspl": 6035,
      "esthe": 6036,
      "Ġgrie": 6037,
      "quar": 6038,
      "Ġclock": 6039,
      "Ġrepro": 6040,
      "END": 6041,
      "Ġmagnific": 6042,
      "fa": 6043,
      "ecture": 6044,
      "ĠDE": 6045,
      "Ġintent": 6046,
      "Ġconcer": 6047,
      "glass": 6048,
      "Ġmilitary": 6049,
      "post": 6050,
      "Ġnut": 6051,
      "Ġfever": 6052,
      "Ġguards": 6053,
      "Ġparl": 6054,
      "Ġlistening": 6055,
      "ASS": 6056,
      "Ġsoftly": 6057,
      "bene": 6058,
      "fric": 6059,
      "rog": 6060,
      "perhaps": 6061,
      "Ġdesired": 6062,
      "Ġretreat": 6063,
      "Ġawa": 6064,
      "eka": 6065,
      "Ġseparated": 6066,
      "state": 6067,
      "Ġisn": 6068,
      "ĠĠĠĠĠĠĠĠĠĠĠĠĠĠĠĠĠĠčĊ": 6069,
      "erson": 6070,
      "conc": 6071,
      "Ġappet": 6072,
      "prise": 6073,
      "Ġviews": 6074,
      "Ġheavens": 6075,
      "ĠUncle": 6076,
      "Ġmedic": 6077,
      "Ġlifted": 6078,
      "Ġpositive": 6079,
      "bury": 6080,
      "Ġcousin": 6081,
      "Ġabst": 6082,
      "Ġconsent": 6083,
      "Ġcurtain": 6084,
      "Ġgreet": 6085,
      "ROS": 6086,
      "Ġaccordingly": 6087,
      "belong": 6088,
      "erves": 6089,
      "iture": 6090,
      "anger": 6091,
      "Ġlofty": 6092,
      "umm": 6093,
      "Ġappeal": 6094,
      "Ġtriumph": 6095,
      "Ġwooden": 6096,
      "Ġcastle": 6097,
      "speak": 6098,
      "Ġcounsel": 6099,
      "EEN": 6100,
      "ding": 6101,
      "ii": 6102,
      "Ġbought": 6103,
      "inger": 6104,
      "omer": 6105,
      "Ġaloud": 6106,
      "Ġrelative": 6107,
      "Ġideal": 6108,
      "ĠDefarge": 6109,
      "Ġdeserted": 6110,
      "kerchief": 6111,
      "uppose": 6112,
      "ĠAmong": 6113,
      "table": 6114,
      "Ġcup": 6115,
      "stre": 6116,
      "Ġatmosphere": 6117,
      "ĠLestrade": 6118,
      "Ġstrangers": 6119,
      "government": 6120,
      "vity": 6121,
      "Ġwet": 6122,
      "Ġbeach": 6123,
      "ĠTrue": 6124,
      "ĠBlack": 6125,
      "ounderby": 6126,
      "Ġque": 6127,
      "Ġfeast": 6128,
      "Ġconsists": 6129,
      "days": 6130,
      "ĠTe": 6131,
      "Ġsoil": 6132,
      "ĠHave": 6133,
      "ĠGl": 6134,
      "Ġfourth": 6135,
      "Ġestim": 6136,
      "complete": 6137,
      "entially": 6138,
      "Ġdesires": 6139,
      "word": 6140,
      "Ġcav": 6141,
      "Ġlux": 6142,
      "Ġasking": 6143,
      "Ġstuff": 6144,
      "ĠSn": 6145,
      "chair": 6146,
      "acco": 6147,
      "Ġpropositions": 6148,
      "pperfield": 6149,
      "past": 6150,
      "Ġsank": 6151,
      "Ġchat": 6152,
      "Ġnerv": 6153,
      "Ġashamed": 6154,
      "establ": 6155,
      "ums": 6156,
      "anting": 6157,
      "ĠNe": 6158,
      "Ġactive": 6159,
      "Ġbloody": 6160,
      "business": 6161,
      "Ġanyone": 6162,
      "liest": 6163,
      "Ġcareful": 6164,
      "Ġcitizen": 6165,
      "ĠCarter": 6166,
      "--'": 6167,
      "Ġpropose": 6168,
      "Ġprincess": 6169,
      "ĠKit": 6170,
      "Ġinsult": 6171,
      "Ġgaze": 6172,
      "STAFF": 6173,
      "UL": 6174,
      "net": 6175,
      "Ġtext": 6176,
      "Ġancest": 6177,
      "thur": 6178,
      "ĠSy": 6179,
      "ĠHigh": 6180,
      "Ġnearest": 6181,
      "Ġpermit": 6182,
      "Ġsupply": 6183,
      "Ġpurcha": 6184,
      "Ġrefused": 6185,
      "ALSTAFF": 6186,
      "Ġphenomenon": 6187,
      "dark": 6188,
      "rict": 6189,
      "six": 6190,
      "Ġdance": 6191,
      "quite": 6192,
      "Ġunlike": 6193,
      "Ġconfusion": 6194,
      "Ġsimpl": 6195,
      "Ġvillain": 6196,
      "Ġvaluable": 6197,
      "Ġbottle": 6198,
      "itchen": 6199,
      "Ġfund": 6200,
      "Ġfountain": 6201,
      "rying": 6202,
      "Ġbrow": 6203,
      "Ġwinds": 6204,
      "Ġvolume": 6205,
      "----------------": 6206,
      "awn": 6207,
      "hist": 6208,
      "erate": 6209,
      "Ġfre": 6210,
      "Ġrisk": 6211,
      "Ġimmort": 6212,
      "Ġapartment": 6213,
      "Ġdeparted": 6214,
      "Ġincrease": 6215,
      "ĠMAR": 6216,
      "Ġric": 6217,
      "cip": 6218,
      "Ġraft": 6219,
      "Ġmetal": 6220,
      "Ġmisery": 6221,
      "Ġcelebr": 6222,
      "Ġstriking": 6223,
      "Ġvisitor": 6224,
      "principle": 6225,
      "ici": 6226,
      "Ġpropri": 6227,
      "ĠPorter": 6228,
      "Ġsomewhere": 6229,
      "Ġcalls": 6230,
      "Ġcentury": 6231,
      "Ġtreated": 6232,
      "Ġderived": 6233,
      "Ġrecollect": 6234,
      "Ġindependent": 6235,
      "Ġapt": 6236,
      "Ġmud": 6237,
      "Ġcommenced": 6238,
      "Ġarticles": 6239,
      "Ġdevoted": 6240,
      "Ġreligious": 6241,
      "Ġcheerful": 6242,
      "cal": 6243,
      "Ġlat": 6244,
      "ĠFOR": 6245,
      "Ġkindness": 6246,
      "Ġexamine": 6247,
      "Ġmarket": 6248,
      "ĠBefore": 6249,
      "Ġacquainted": 6250,
      "Ġviolence": 6251,
      "Ġmeasures": 6252,
      "Ġshelter": 6253,
      "na": 6254,
      "hael": 6255,
      "ĠGu": 6256,
      "ĠGran": 6257,
      "Ġwaist": 6258,
      "Ġcontinuous": 6259,
      "Ġlimited": 6260,
      "ological": 6261,
      "ĠQuilp": 6262,
      "sk": 6263,
      "atr": 6264,
      "Ġmechan": 6265,
      "ulan": 6266,
      "Ġvon": 6267,
      "Ġshalt": 6268,
      "Ġwrought": 6269,
      "Ġexisting": 6270,
      "Ġmadam": 6271,
      "Ġprayer": 6272,
      "Ġdeclared": 6273,
      "IAN": 6274,
      "Ġtrace": 6275,
      "Ġrig": 6276,
      "Ġdescribe": 6277,
      "Ġcommerce": 6278,
      "Was": 6279,
      "wit": 6280,
      "Ġther": 6281,
      "Ġbrilliant": 6282,
      "Ġham": 6283,
      "Ġgest": 6284,
      "Ġamuse": 6285,
      "Ġesteem": 6286,
      "Ġfields": 6287,
      "Ġela": 6288,
      "pleasant": 6289,
      "ĠGUT": 6290,
      "const": 6291,
      "Ġcontents": 6292,
      "Ġtea": 6293,
      "Ġopposed": 6294,
      "Ġmotive": 6295,
      "Ġstruggle": 6296,
      "high": 6297,
      "mother": 6298,
      "Ġax": 6299,
      "separ": 6300,
      "Ġindul": 6301,
      "Ġopposition": 6302,
      "Ġloving": 6303,
      "Ġconcepts": 6304,
      "best": 6305,
      "Ġwake": 6306,
      "athed": 6307,
      "along": 6308,
      "ĠHaving": 6309,
      "aug": 6310,
      "manner": 6311,
      "Ġmarch": 6312,
      "Ġsolitary": 6313,
      "Ġverse": 6314,
      "Ġpin": 6315,
      "arling": 6316,
      "import": 6317,
      "ĠRokoff": 6318,
      "Ġactivity": 6319,
      "ĠAnge": 6320,
      "Ġindividuals": 6321,
      "already": 6322,
      "Ġdisgu": 6323,
      "Ġattitude": 6324,
      "Ġquarters": 6325,
      "sign": 6326,
      "omed": 6327,
      "icates": 6328,
      "ĠLike": 6329,
      "Ġattached": 6330,
      "Ġrepublic": 6331,
      "ailing": 6332,
      "Ġsteel": 6333,
      "engers": 6334,
      "Ġexamination": 6335,
      "Ġapproaching": 6336,
      "Ġtroubled": 6337,
      "Ġconcluded": 6338,
      "impse": 6339,
      "orig": 6340,
      "Ġpier": 6341,
      "Ġstomach": 6342,
      "ĠSal": 6343,
      "dec": 6344,
      "Ġcompet": 6345,
      "Ġsumm": 6346,
      "Ġwounded": 6347,
      "ĠHam": 6348,
      "Ġroar": 6349,
      "Ġpron": 6350,
      "bb": 6351,
      "agree": 6352,
      "Ġoccasions": 6353,
      "Ġcapital": 6354,
      "Ġgrowth": 6355,
      "Ġwarning": 6356,
      "raddles": 6357,
      "Ġparents": 6358,
      "zz": 6359,
      "isen": 6360,
      "Ġcunning": 6361,
      "Ġgri": 6362,
      "Ġenorm": 6363,
      "Ġcontempt": 6364,
      "Ġharmony": 6365,
      "Ġ20": 6366,
      "Ġstronger": 6367,
      "Ġstrongly": 6368,
      "Ġarguments": 6369,
      "Ġhaste": 6370,
      "Ġmanifest": 6371,
      "Ġinvestigation": 6372,
      "Ġtoss": 6373,
      "Ġrev": 6374,
      "Ġprec": 6375,
      "Ġbridge": 6376,
      "Ġeverywhere": 6377,
      "cription": 6378,
      "mbra": 6379,
      "Ġprotection": 6380,
      "Nay": 6381,
      "yard": 6382,
      "Ġug": 6383,
      "Ġshru": 6384,
      "Ġshock": 6385,
      "Ġcanoe": 6386,
      "Ġglo": 6387,
      "Ġemotion": 6388,
      "Ġslip": 6389,
      "Ġsurround": 6390,
      "Ġpainful": 6391,
      "Before": 6392,
      "Ġbree": 6393,
      "Ġcard": 6394,
      "Ġdost": 6395,
      "Ġride": 6396,
      "hang": 6397,
      "Ġanywhere": 6398,
      "Ġcloser": 6399,
      "Ġpunishment": 6400,
      "faced": 6401,
      "MON": 6402,
      "Would": 6403,
      "rather": 6404,
      "Ġsen": 6405,
      "lls": 6406,
      "ades": 6407,
      "iform": 6408,
      "ĠCarker": 6409,
      "Ġarranged": 6410,
      "Ġbrings": 6411,
      "ictory": 6412,
      "Ġmagnitude": 6413,
      "Certainly": 6414,
      "Presently": 6415,
      "words": 6416,
      "Ġscientific": 6417,
      "Ġbark": 6418,
      "Ġextended": 6419,
      "ements": 6420,
      "Ġclam": 6421,
      "aced": 6422,
      "Ġgrey": 6423,
      "Ġbalance": 6424,
      "Ġintellectual": 6425,
      "circumst": 6426,
      "icial": 6427,
      "ĠRep": 6428,
      "Ġlawyer": 6429,
      "Ġlords": 6430,
      "ĠCaesar": 6431,
      "Ġappreci": 6432,
      "?-": 6433,
      "care": 6434,
      "phant": 6435,
      "Ġcart": 6436,
      "aration": 6437,
      "ana": 6438,
      "ĠHon": 6439,
      "Ġleis": 6440,
      "Ġuniverse": 6441,
      "Ġsurv": 6442,
      "Ġjudges": 6443,
      "Ġsorts": 6444,
      "sometimes": 6445,
      "ĠEdward": 6446,
      "inces": 6447,
      "Ġmatch": 6448,
      "Ġreign": 6449,
      "Ġgoods": 6450,
      "Ġobtained": 6451,
      "lands": 6452,
      "ĠAnother": 6453,
      "Ġoccasionally": 6454,
      "ilst": 6455,
      "Ġdesir": 6456,
      "Ġplaying": 6457,
      "Ġattempted": 6458,
      "Ġweapon": 6459,
      "Americ": 6460,
      "Ġmood": 6461,
      "Ġclearing": 6462,
      "ELL": 6463,
      "Thy": 6464,
      "Ġgay": 6465,
      "enter": 6466,
      "conception": 6467,
      "Ġscorn": 6468,
      "Ġreasonable": 6469,
      "IND": 6470,
      "cular": 6471,
      "Ġmorality": 6472,
      "chance": 6473,
      "Ġleads": 6474,
      "Ġtroubles": 6475,
      "Ġclerk": 6476,
      "Ġsovereign": 6477,
      "esthetic": 6478,
      "death": 6479,
      "Ġreputation": 6480,
      "Ġtear": 6481,
      "Ġdoubtless": 6482,
      "Ġprivile": 6483,
      "Ġsuggestion": 6484,
      "Ġliterature": 6485,
      "ihn": 6486,
      "wa": 6487,
      "ari": 6488,
      "idel": 6489,
      "ĠSee": 6490,
      "Ġlightning": 6491,
      "Ġwarrant": 6492,
      "Ġswept": 6493,
      "Ġbenefit": 6494,
      "call": 6495,
      "Ġod": 6496,
      "blood": 6497,
      "Ġremote": 6498,
      "success": 6499,
      "Ġhoriz": 6500,
      "CESTER": 6501,
      "!--": 6502,
      "hour": 6503,
      "amation": 6504,
      "ĠWould": 6505,
      "Ġrot": 6506,
      "Ġbrute": 6507,
      "Ġoffices": 6508,
      "ogra": 6509,
      "Ġconsult": 6510,
      "Ġthoroughly": 6511,
      "itudes": 6512,
      "Ġpressed": 6513,
      "Ġash": 6514,
      "actly": 6515,
      "break": 6516,
      "Ġmultitude": 6517,
      "See": 6518,
      "dest": 6519,
      "Ġtied": 6520,
      "hend": 6521,
      "ifying": 6522,
      "Ġrush": 6523,
      "Ġacted": 6524,
      "Ġinches": 6525,
      "Ġcharged": 6526,
      "Ġarrive": 6527,
      "Ġtype": 6528,
      "Ġpremisses": 6529,
      "uity": 6530,
      "second": 6531,
      "irteen": 6532,
      "thousand": 6533,
      "ĠFe": 6534,
      "behind": 6535,
      "Ġbreaking": 6536,
      "Ġrocks": 6537,
      "Ġwing": 6538,
      "Ġcla": 6539,
      "ĠEl": 6540,
      "Ġnevertheless": 6541,
      "Ġrightly": 6542,
      "appeared": 6543,
      "arrass": 6544,
      "Ġurged": 6545,
      "Ġdiffer": 6546,
      "matic": 6547,
      "Ġidentical": 6548,
      "Ġaccordance": 6549,
      "Ġconcerning": 6550,
      "Take": 6551,
      "TON": 6552,
      "bacco": 6553,
      "Ġbased": 6554,
      "Ġbeard": 6555,
      "Ġgates": 6556,
      "Ġissue": 6557,
      "ĠĠĠĠĠĠĠĠĠĠĠĠĠĠĠĠĠĠĠĠĠ": 6558,
      "umped": 6559,
      "Ġscattered": 6560,
      "Ġthroughout": 6561,
      "hoe": 6562,
      "accom": 6563,
      "cheon": 6564,
      "subst": 6565,
      "Ġexecution": 6566,
      "particular": 6567,
      "Because": 6568,
      "ICH": 6569,
      "ioned": 6570,
      "keeper": 6571,
      "Ġmoves": 6572,
      "Ġperfection": 6573,
      "English": 6574,
      "lict": 6575,
      "Ġtick": 6576,
      "Ġmock": 6577,
      "Ġunusual": 6578,
      "whom": 6579,
      "eyed": 6580,
      "Ġmachine": 6581,
      "AIN": 6582,
      "dri": 6583,
      "Ġhell": 6584,
      "ĠShall": 6585,
      "hur": 6586,
      "learn": 6587,
      "sey": 6588,
      "akened": 6589,
      "ruption": 6590,
      "Ġsplendid": 6591,
      "allow": 6592,
      "conn": 6593,
      "cribe": 6594,
      "Ġsensuous": 6595,
      "Ġdetermining": 6596,
      "Ġleaf": 6597,
      "Ġdeparture": 6598,
      "Ġapplication": 6599,
      "Ca": 6600,
      "ef": 6601,
      "piece": 6602,
      "swe": 6603,
      "Ġtorn": 6604,
      "Ġpuzz": 6605,
      "Ġstore": 6606,
      "thus": 6607,
      "Ġformal": 6608,
      "Ġinterrupted": 6609,
      "Ġmetaphys": 6610,
      "Ġofficial": 6611,
      "Ġperceived": 6612,
      "school": 6613,
      "non": 6614,
      "enth": 6615,
      "dead": 6616,
      "Ġsteal": 6617,
      "occasion": 6618,
      "Ġinformed": 6619,
      "Ġlately": 6620,
      "lex": 6621,
      "uming": 6622,
      "ĠCla": 6623,
      "ishop": 6624,
      "Ġrelated": 6625,
      "Ġdetail": 6626,
      "Ġcrying": 6627,
      "times": 6628,
      "ufact": 6629,
      "Ġlocked": 6630,
      "Ġren": 6631,
      "ĠSummerlee": 6632,
      "Ġunhappy": 6633,
      "Ġcondu": 6634,
      "Ġweakness": 6635,
      "hambra": 6636,
      "Ġsus": 6637,
      "Ġaboard": 6638,
      "whose": 6639,
      "Ġflow": 6640,
      "Ġconceal": 6641,
      "Ġclasses": 6642,
      "Ġspeculative": 6643,
      "Ġdesperate": 6644,
      "Ġphrase": 6645,
      "FALSTAFF": 6646,
      "log": 6647,
      "ĠAfric": 6648,
      "ĠBesides": 6649,
      "Ġknowed": 6650,
      "Ġplate": 6651,
      "iversity": 6652,
      "Ġmedium": 6653,
      "osa": 6654,
      "bear": 6655,
      "Ġbegins": 6656,
      "Ġprior": 6657,
      "Ġdeadly": 6658,
      "Ġstrain": 6659,
      "Ġdiam": 6660,
      "Ġwandering": 6661,
      "Ġinstrument": 6662,
      "Com": 6663,
      "UN": 6664,
      "lar": 6665,
      "ĠIS": 6666,
      "utter": 6667,
      "exc": 6668,
      "super": 6669,
      "Ġconceived": 6670,
      "Ġprobable": 6671,
      "Ġsafely": 6672,
      "Ġdrinking": 6673,
      "Ġvessels": 6674,
      "Ġpace": 6675,
      "Ġkitchen": 6676,
      "ructed": 6677,
      "Ġplants": 6678,
      "Ġgenerous": 6679,
      "Ġwanting": 6680,
      "Ġtrem": 6681,
      "although": 6682,
      "ĠAny": 6683,
      "Ġmagist": 6684,
      "Ġcouncil": 6685,
      "Ġhungry": 6686,
      "Ġextremely": 6687,
      "Ġsublime": 6688,
      "Ġchin": 6689,
      "ensible": 6690,
      "Ġhousehold": 6691,
      "Ġinterior": 6692,
      "Ġpatience": 6693,
      "Ġfatal": 6694,
      "Ġassistance": 6695,
      "ĠMadame": 6696,
      "making": 6697,
      "ena": 6698,
      "ora": 6699,
      "Ġdared": 6700,
      "Ġstiff": 6701,
      "usive": 6702,
      "Ġobed": 6703,
      "Ġspend": 6704,
      "untary": 6705,
      "phil": 6706,
      "mediately": 6707,
      "Ġbrothers": 6708,
      "Fl": 6709,
      "lady": 6710,
      "rat": 6711,
      "Ġz": 6712,
      "isher": 6713,
      "Ġpushed": 6714,
      "Ġwhist": 6715,
      "ĠBounderby": 6716,
      "ĠWerper": 6717,
      "Ġprophe": 6718,
      "Ġusing": 6719,
      "dev": 6720,
      "brance": 6721,
      "Ġhypothes": 6722,
      "dro": 6723,
      "Ġinner": 6724,
      "arms": 6725,
      "ighed": 6726,
      "ĠĠĠĠĠĠĠĠĠĠĠĠĠĠĠĠĠĠĠĠĠĠĠĠĠĠĠĠĠĠĠĠĠĠ": 6727,
      "ounter": 6728,
      "Ġdecay": 6729,
      "ĠIndians": 6730,
      "laws": 6731,
      "Ġdistinguish": 6732,
      "doubt": 6733,
      "bal": 6734,
      "move": 6735,
      "Ġinasmuch": 6736,
      "Ġgent": 6737,
      "almost": 6738,
      "Ġult": 6739,
      "Ġassembl": 6740,
      "Ġattended": 6741,
      "Ġdeeds": 6742,
      "Ġdaylight": 6743,
      "izes": 6744,
      "Ġentreat": 6745,
      "Ġelsewhere": 6746,
      "Ġfreely": 6747,
      "Ġtransl": 6748,
      "Ġshouted": 6749,
      "Ġfog": 6750,
      "Ġanalog": 6751,
      "Ġagent": 6752,
      "Ġ13": 6753,
      "obody": 6754,
      "Ġadmin": 6755,
      "ĠXX": 6756,
      "Ġdiscussion": 6757,
      "Ġmajority": 6758,
      "Ġnodded": 6759,
      "Ġgorge": 6760,
      "Ġantic": 6761,
      "Ġperil": 6762,
      "arkas": 6763,
      "Ġremove": 6764,
      "means": 6765,
      "short": 6766,
      "Ġrefuse": 6767,
      "Ġsuccession": 6768,
      "Ġfrightful": 6769,
      "Ġugly": 6770,
      "Cha": 6771,
      "bod": 6772,
      "drew": 6773,
      "Ġborrow": 6774,
      "Their": 6775,
      "Ġoffence": 6776,
      "Ġboats": 6777,
      "Ġbelonging": 6778,
      "Ġvirtues": 6779,
      "Ġuttered": 6780,
      "twenty": 6781,
      "Ġgrateful": 6782,
      "ere": 6783,
      "Ġowing": 6784,
      "Ġfishes": 6785,
      "Ġlou": 6786,
      "throp": 6787,
      "ĠPresently": 6788,
      "Ġclo": 6789,
      "Ġcontact": 6790,
      "ĠThou": 6791,
      "Ġdetect": 6792,
      "Ġintervals": 6793,
      "Ġsinging": 6794,
      "Ġappropri": 6795,
      "Letter": 6796,
      "ĠScotland": 6797,
      "Ġze": 6798,
      "Ġmixed": 6799,
      "icing": 6800,
      "urred": 6801,
      "Ġhers": 6802,
      "Ġshoes": 6803,
      "uns": 6804,
      "Ġdistress": 6805,
      "Ġcease": 6806,
      "gue": 6807,
      "Ġbowed": 6808,
      "around": 6809,
      "former": 6810,
      "gging": 6811,
      "Ġinquire": 6812,
      "Ġweapons": 6813,
      "Ġtomb": 6814,
      "Ġpound": 6815,
      "Ġinch": 6816,
      "Ġloyal": 6817,
      "ĠTem": 6818,
      "ĠAp": 6819,
      "Ġvoid": 6820,
      "Ġrhy": 6821,
      "Ġcontract": 6822,
      "Ġrested": 6823,
      "THER": 6824,
      "Ġportra": 6825,
      "Ġrecollection": 6826,
      "gian": 6827,
      "maid": 6828,
      "toward": 6829,
      "Ġbatt": 6830,
      "ĠIss": 6831,
      "Ġtho": 6832,
      "Ġyard": 6833,
      "Ġsheep": 6834,
      "ĠEach": 6835,
      "Ġscale": 6836,
      "Ġpointing": 6837,
      "Ġacquired": 6838,
      "believe": 6839,
      "Ġfurnish": 6840,
      "Ġprocession": 6841,
      "ixture": 6842,
      "uine": 6843,
      "Ġfrown": 6844,
      "Ġnin": 6845,
      "Ġgift": 6846,
      "ĠSally": 6847,
      "qual": 6848,
      "force": 6849,
      "Ġsteady": 6850,
      "Ġsummit": 6851,
      "ĠProt": 6852,
      "ĠBeing": 6853,
      "Ġdelighted": 6854,
      "Ġgratitude": 6855,
      "conditioned": 6856,
      "Ġoft": 6857,
      "strange": 6858,
      "ĠPha": 6859,
      "Ġgrant": 6860,
      "iculous": 6861,
      "Ġcondem": 6862,
      "strous": 6863,
      "Ġcollect": 6864,
      "Ġmanifold": 6865,
      "Ġtiny": 6866,
      "Ġol": 6867,
      "Ġsevere": 6868,
      "plain": 6869,
      "Ġfeather": 6870,
      "Ġendure": 6871,
      "bye": 6872,
      "Ġcorpse": 6873,
      "Ġapprehension": 6874,
      "Ġsteadily": 6875,
      "More": 6876,
      "Ġdisgrace": 6877,
      "Ġcommunity": 6878,
      "Ġjudgements": 6879,
      "Ġestablish": 6880,
      "Ġmilk": 6881,
      "Ġcomparison": 6882,
      "ĠRussian": 6883,
      "OO": 6884,
      "PE": 6885,
      "uary": 6886,
      "ĠSE": 6887,
      "Ġshirt": 6888,
      "ccording": 6889,
      "Ġexisted": 6890,
      "Ġprimary": 6891,
      "Ġsyllogism": 6892,
      "ĠThuvia": 6893,
      "Ġchimney": 6894,
      "18": 6895,
      "kut": 6896,
      "Ġpile": 6897,
      "ara": 6898,
      "Ġalt": 6899,
      "Ġregul": 6900,
      "ĠEnglishman": 6901,
      "gypt": 6902,
      "Ġexerc": 6903,
      "ĠMoreover": 6904,
      "ĠThomas": 6905,
      "Ġhospit": 6906,
      "why": 6907,
      "Ġrespons": 6908,
      "ĠBritain": 6909,
      "Ġprecisely": 6910,
      "Ġsan": 6911,
      "erity": 6912,
      "atform": 6913,
      "rious": 6914,
      "Ġdeeper": 6915,
      "Ġprodig": 6916,
      "oping": 6917,
      "Ġboots": 6918,
      "Ġshowing": 6919,
      "aneously": 6920,
      "Ġsixty": 6921,
      "Ġheavily": 6922,
      "judge": 6923,
      "taking": 6924,
      "Ġwithdra": 6925,
      "Ġvault": 6926,
      "Ġmoreover": 6927,
      "soon": 6928,
      "Ġimpulse": 6929,
      "Ġglimpse": 6930,
      "Ġcompared": 6931,
      "Ġvictory": 6932,
      "llen": 6933,
      "Ġhiding": 6934,
      "Ġrenew": 6935,
      "Ġstared": 6936,
      "osure": 6937,
      "ĠEarth": 6938,
      "comes": 6939,
      "Ġpainted": 6940,
      "Ġsubstances": 6941,
      "Ġsocial": 6942,
      "ĠWhich": 6943,
      "Ġcultiv": 6944,
      "pat": 6945,
      "hable": 6946,
      "estern": 6947,
      "imony": 6948,
      "etch": 6949,
      "Ġthereby": 6950,
      "Ġknocked": 6951,
      "Ġshed": 6952,
      "Ġunexpected": 6953,
      "ĠLove": 6954,
      "positions": 6955,
      "Ġhelped": 6956,
      "Ġabsor": 6957,
      "Ġaccompany": 6958,
      "Ġestablishment": 6959,
      "Ġrejoined": 6960,
      "Ġanticip": 6961,
      "van": 6962,
      "win": 6963,
      "Ġmanage": 6964,
      "Ġimpr": 6965,
      "angled": 6966,
      "Ġstealth": 6967,
      "Ġinclined": 6968,
      "Ġwandered": 6969,
      "ĠDora": 6970,
      "ĠDavid": 6971,
      "Ġenormous": 6972,
      "Such": 6973,
      "Ġfires": 6974,
      "aments": 6975,
      "ĠOther": 6976,
      "ĠNO": 6977,
      "Ġpluck": 6978,
      "ĠRE": 6979,
      "Ġbeloved": 6980,
      "OUCESTER": 6981,
      "Ġdefend": 6982,
      "Ġlantern": 6983,
      "Sm": 6984,
      "yr": 6985,
      "oration": 6986,
      "Ġinjustice": 6987,
      "ĠSus": 6988,
      "Ġconform": 6989,
      "ĠBob": 6990,
      "bler": 6991,
      "prov": 6992,
      "Ġconstantly": 6993,
      "Ġaccomplished": 6994,
      "tri": 6995,
      "zib": 6996,
      "Ġlap": 6997,
      "Ġthread": 6998,
      "ĠTarkas": 6999,
      "Ġvic": 7000,
      "olen": 7001,
      "Ġcompelled": 7002,
      "withstanding": 7003,
      "actory": 7004,
      "abled": 7005,
      "ĠEuropean": 7006,
      "Ġhalted": 7007,
      "Indeed": 7008,
      ".--": 7009,
      "Ġcog": 7010,
      "orus": 7011,
      "ĠMil": 7012,
      "ĠĠĠĠĠĠĠĠĠĠĠĠĠĠĠĠĠĠĠ": 7013,
      "Ġclut": 7014,
      "Ġkeeps": 7015,
      "Ġsignal": 7016,
      "Ġstole": 7017,
      "Ġfolk": 7018,
      "Ġexpedition": 7019,
      "Ġvoyage": 7020,
      "Ġoh": 7021,
      "ifts": 7022,
      "ĠMo": 7023,
      "Ġenthus": 7024,
      "broken": 7025,
      "England": 7026,
      "ĠGreek": 7027,
      "sa": 7028,
      "Ġfil": 7029,
      "ications": 7030,
      "uttle": 7031,
      "Ġreduced": 7032,
      "Ġseeking": 7033,
      "Ġreasoning": 7034,
      "Ġacting": 7035,
      "Ġimagined": 7036,
      "Ġrepeat": 7037,
      "ĠCopperfield": 7038,
      "ĠGranada": 7039,
      "Ġowe": 7040,
      "onstr": 7041,
      "Ġforgive": 7042,
      "ols": 7043,
      "Ġprofessor": 7044,
      "Ġuncertain": 7045,
      "ĠKan": 7046,
      "Ġstandard": 7047,
      "Ġexperiment": 7048,
      "Ġdirections": 7049,
      "Ġexceedingly": 7050,
      "Ġlic": 7051,
      "Ġthither": 7052,
      "olk": 7053,
      "Ġrepresentations": 7054,
      "lowly": 7055,
      "Give": 7056,
      "MY": 7057,
      "Mon": 7058,
      "Ġdialect": 7059,
      "ĠTake": 7060,
      "olation": 7061,
      "Ġleaning": 7062,
      "Ġindicate": 7063,
      "grat": 7064,
      "ĠArthur": 7065,
      "Ġflew": 7066,
      "principles": 7067,
      "Ġnervous": 7068,
      "zibah": 7069,
      "Pr": 7070,
      "prom": 7071,
      "true": 7072,
      "orable": 7073,
      "leton": 7074,
      "ĠTraddles": 7075,
      "Ġenable": 7076,
      "Ġhated": 7077,
      "Ġincap": 7078,
      "Ġcenter": 7079,
      "Ġroads": 7080,
      "ĠĠĠĠĠĠĠĠĠĠĠĠĠĠĠĠĠĠĠčĊ": 7081,
      "philosop": 7082,
      "Ġrang": 7083,
      "Ġunion": 7084,
      "ĠED": 7085,
      "Ġraising": 7086,
      "Ġsynthetical": 7087,
      "Ġdoctrine": 7088,
      "sla": 7089,
      "rived": 7090,
      "ello": 7091,
      "conven": 7092,
      "ĠBeck": 7093,
      "Ġengine": 7094,
      "Ġlogical": 7095,
      "intellig": 7096,
      "SIR": 7097,
      "Ġthirst": 7098,
      "alone": 7099,
      "Ġretain": 7100,
      "ensions": 7101,
      "Ġhatred": 7102,
      "ĠChurch": 7103,
      "Ġkissed": 7104,
      "Ġclergy": 7105,
      "ov": 7106,
      "wart": 7107,
      "Ġtheore": 7108,
      "Ġglorious": 7109,
      "Ġcounty": 7110,
      "Ġetc": 7111,
      "ĠShakespeare": 7112,
      "Ġwhilst": 7113,
      "ĠMe": 7114,
      "Ġdey": 7115,
      "Ġnois": 7116,
      "Ġflung": 7117,
      "Ġ14": 7118,
      "Ġattach": 7119,
      "Ġanxiety": 7120,
      "utenant": 7121,
      "Ġastonished": 7122,
      "ĠPresident": 7123,
      "told": 7124,
      "Ġpasses": 7125,
      "Ġobjection": 7126,
      "Ġschol": 7127,
      "Ġcriminal": 7128,
      "beautiful": 7129,
      "Like": 7130,
      "knew": 7131,
      "wall": 7132,
      "Ġ/": 7133,
      "Ġfame": 7134,
      "Ġscore": 7135,
      "Ġswords": 7136,
      "Ġmovements": 7137,
      "Ġaffections": 7138,
      "Ġneighbor": 7139,
      "Ġgazed": 7140,
      "ION": 7141,
      "ien": 7142,
      "rep": 7143,
      "itors": 7144,
      "Ġdifficulties": 7145,
      "Ġaccepted": 7146,
      "BR": 7147,
      "PER": 7148,
      "ping": 7149,
      "Ġwha": 7150,
      "Ġsciences": 7151,
      "Ġfrank": 7152,
      "eta": 7153,
      "ula": 7154,
      "orts": 7155,
      "Ġchanging": 7156,
      "Ġconsequences": 7157,
      "Ġislands": 7158,
      "occup": 7159,
      "Ġimperfect": 7160,
      "Ġmaxim": 7161,
      "dr": 7162,
      "home": 7163,
      "jac": 7164,
      "Ġinform": 7165,
      "keep": 7166,
      "gend": 7167,
      "ĠĠĠĠĠĠĠĠĠĠĠĠĠĠĠĠĠĠĠĠĠĠĠĠĠĠĠĠĠ": 7168,
      "comb": 7169,
      "Ġestimate": 7170,
      "Ġstartled": 7171,
      "Ġmurderer": 7172,
      "Ġcrowded": 7173,
      "fish": 7174,
      "gon": 7175,
      "Ġawe": 7176,
      "inous": 7177,
      "Ġtoler": 7178,
      "Ġtobacco": 7179,
      "irmed": 7180,
      "ĠAunt": 7181,
      "ĠHarry": 7182,
      "Ġgrows": 7183,
      "Ġbegged": 7184,
      "Ġtrif": 7185,
      "Ġcheck": 7186,
      "Ġsolution": 7187,
      "everything": 7188,
      "Ġfleet": 7189,
      "Ġdescended": 7190,
      "ĠSometimes": 7191,
      "CK": 7192,
      "sound": 7193,
      "vest": 7194,
      "Ġwave": 7195,
      "Ġsore": 7196,
      "Ġfangs": 7197,
      "Ġrecommend": 7198,
      "Ġshield": 7199,
      "Ġperple": 7200,
      "concl": 7201,
      "Ġbloom": 7202,
      "Ġflame": 7203,
      "Ġbanks": 7204,
      "comfortable": 7205,
      "CR": 7206,
      "bird": 7207,
      "coll": 7208,
      "number": 7209,
      "squ": 7210,
      "Ġinev": 7211,
      "Ġbears": 7212,
      "ĠTime": 7213,
      "olate": 7214,
      "keness": 7215,
      "scape": 7216,
      "pot": 7217,
      "isms": 7218,
      "Ġblows": 7219,
      "Ġ11": 7220,
      "Ġspeaks": 7221,
      "Ġsensibility": 7222,
      "sufficient": 7223,
      "ĠAugust": 7224,
      "Ġmedicine": 7225,
      "Jo": 7226,
      "fell": 7227,
      "shad": 7228,
      "ENCE": 7229,
      "Ġfury": 7230,
      "Ġprompt": 7231,
      "Ġrevolution": 7232,
      "animal": 7233,
      "Ġlocal": 7234,
      "fif": 7235,
      "uel": 7236,
      "asper": 7237,
      "illing": 7238,
      "Ġdeb": 7239,
      "Ġleaned": 7240,
      "ĠLu": 7241,
      "Ġthrowing": 7242,
      "Ġintense": 7243,
      "Ġveget": 7244,
      "impossible": 7245,
      "Ġintroduced": 7246,
      "Am": 7247,
      "bbing": 7248,
      "Ġfulf": 7249,
      "Ġpig": 7250,
      "Ġdre": 7251,
      "jected": 7252,
      "Ġindifferent": 7253,
      "Ġcolours": 7254,
      "ĠBrass": 7255,
      "earth": 7256,
      "tion": 7257,
      "Ġpir": 7258,
      "Ġdense": 7259,
      "Ġstout": 7260,
      "Ġtragedy": 7261,
      "Ġhumanity": 7262,
      "Though": 7263,
      "Ġcommanded": 7264,
      "Ġpenet": 7265,
      "equal": 7266,
      "Ġdestroyed": 7267,
      "Ġreferred": 7268,
      "Ġingen": 7269,
      "GO": 7270,
      "Had": 7271,
      "houses": 7272,
      "ikes": 7273,
      "mount": 7274,
      "ris": 7275,
      "Ġrela": 7276,
      "ĠBay": 7277,
      "Ġwheel": 7278,
      "Ġswim": 7279,
      "Ġinterview": 7280,
      "Ġmarble": 7281,
      "Ġcontinually": 7282,
      "ALL": 7283,
      "Ġwondering": 7284,
      "Ġdancing": 7285,
      "Ġstudent": 7286,
      "Ġarrival": 7287,
      "Ġconnect": 7288,
      "BERG": 7289,
      "hope": 7290,
      "oubted": 7291,
      "ithe": 7292,
      "Ġhaven": 7293,
      "Ġmeal": 7294,
      "antages": 7295,
      "ĠPt": 7296,
      "Ġgranted": 7297,
      "Ġcountries": 7298,
      "IST": 7299,
      "Ġarrangement": 7300,
      "sl": 7301,
      "Ġpor": 7302,
      "Ġrele": 7303,
      "Ġstories": 7304,
      "ĠCourt": 7305,
      "ĠDod": 7306,
      "Ġfounded": 7307,
      "Ġburden": 7308,
      "Ġmeantime": 7309,
      "window": 7310,
      "Ġvanished": 7311,
      "roo": 7312,
      "Ġstaring": 7313,
      "ĠJeddak": 7314,
      "Ġcommission": 7315,
      "Ġwriter": 7316,
      "Ġeleven": 7317,
      "Ġcapacity": 7318,
      "gans": 7319,
      "vell": 7320,
      "Ġstup": 7321,
      "else": 7322,
      "Ġattract": 7323,
      "Ġgazing": 7324,
      "Ġspectacle": 7325,
      "Ġgloomy": 7326,
      "JECT": 7327,
      "eries": 7328,
      "icit": 7329,
      "stoke": 7330,
      "Ġstag": 7331,
      "Ġleather": 7332,
      "open": 7333,
      "except": 7334,
      "Ġintim": 7335,
      "Ġindust": 7336,
      "venture": 7337,
      "Ġdecide": 7338,
      "Ġsummon": 7339,
      "Ġintelligible": 7340,
      "ĠSpanish": 7341,
      "sea": 7342,
      "Ġconfined": 7343,
      "Ġbrand": 7344,
      "ĠQU": 7345,
      "Ġreckoned": 7346,
      "Ġfrequently": 7347,
      "DON": 7348,
      "Pe": 7349,
      "PRIN": 7350,
      "iage": 7351,
      "Ġpoured": 7352,
      "Ġexert": 7353,
      "Ġneat": 7354,
      "ĠGrey": 7355,
      "ĠEtext": 7356,
      "Ġdismal": 7357,
      "Ġdefence": 7358,
      "ippi": 7359,
      "IOL": 7360,
      "apt": 7361,
      "Ġdepos": 7362,
      "ĠBet": 7363,
      "ĠBur": 7364,
      "acon": 7365,
      "Ġparted": 7366,
      "retion": 7367,
      "Ġcourts": 7368,
      "Ġdiscern": 7369,
      "Ġruined": 7370,
      "aneous": 7371,
      "ĠDeath": 7372,
      "istol": 7373,
      "Ġpreceding": 7374,
      "Ġcott": 7375,
      "atin": 7376,
      "asures": 7377,
      "Ġlur": 7378,
      "ĠBoth": 7379,
      "Ġnatives": 7380,
      "Ġcleared": 7381,
      "Ġsunk": 7382,
      "Ġprovide": 7383,
      "horse": 7384,
      "Ġmourn": 7385,
      "Ġseas": 7386,
      "umbling": 7387,
      "Ġuniform": 7388,
      "Ġprime": 7389,
      "def": 7390,
      "Ġhonourable": 7391,
      "Ġestate": 7392,
      "ĠAlhambra": 7393,
      "Ġbodily": 7394,
      "Ġsalt": 7395,
      "Only": 7396,
      "Ġcopyright": 7397,
      "spring": 7398,
      "\";": 7399,
      "erer": 7400,
      "iate": 7401,
      "Ġbuck": 7402,
      "Ġdil": 7403,
      "ado": 7404,
      "amps": 7405,
      "ĠAthen": 7406,
      "Ġvice": 7407,
      "ĠEND": 7408,
      "Ġspell": 7409,
      "Ġowner": 7410,
      "Ġpassages": 7411,
      "Ġguest": 7412,
      "Ġtrifle": 7413,
      "Ġsentiments": 7414,
      "Ġbedroom": 7415,
      "understand": 7416,
      "Ġcreated": 7417,
      "ambi": 7418,
      "ivalent": 7419,
      "Thank": 7420,
      "children": 7421,
      "Tell": 7422,
      "gent": 7423,
      "iated": 7424,
      "lord": 7425,
      "feet": 7426,
      "Ġresolution": 7427,
      "lessness": 7428,
      "Ġvisited": 7429,
      "Ġbulk": 7430,
      "rancis": 7431,
      "Ġappetite": 7432,
      "free": 7433,
      "gave": 7434,
      "mouth": 7435,
      "riment": 7436,
      "Ġdumb": 7437,
      "ĠMaxon": 7438,
      "Ġknee": 7439,
      "neg": 7440,
      "Ġcheeks": 7441,
      "Ġrange": 7442,
      "Ġattributes": 7443,
      "engeance": 7444,
      "VER": 7445,
      "xx": 7446,
      "Ġlake": 7447,
      "alian": 7448,
      "ĠAch": 7449,
      "ĠWashington": 7450,
      "ĠGentle": 7451,
      "Ġpoets": 7452,
      "Ġflood": 7453,
      "Ġresour": 7454,
      "Ġcolor": 7455,
      "Ġmission": 7456,
      "ĠReason": 7457,
      "ĠSpain": 7458,
      "Ġfrequent": 7459,
      "Ġashore": 7460,
      "phy": 7461,
      "Ġtun": 7462,
      "Ġsne": 7463,
      "Ġcas": 7464,
      "ĠCast": 7465,
      "Ġjest": 7466,
      "Ġtraining": 7467,
      "prison": 7468,
      "proceed": 7469,
      "Ġdimin": 7470,
      "Ġguns": 7471,
      "Ġpilot": 7472,
      ".-": 7473,
      "corn": 7474,
      "Ġfie": 7475,
      "atre": 7476,
      "Ġnoted": 7477,
      "Ġoutward": 7478,
      "Ġrolling": 7479,
      "forward": 7480,
      "neither": 7481,
      "conv": 7482,
      "Ġplatform": 7483,
      "USE": 7484,
      "ĠWhite": 7485,
      "Ġsmoking": 7486,
      "bott": 7487,
      "dy": 7488,
      "grow": 7489,
      "poor": 7490,
      "uk": 7491,
      "wed": 7492,
      "urious": 7493,
      "Ġagony": 7494,
      "ĠHep": 7495,
      "Ġgrin": 7496,
      "Ġpursue": 7497,
      "Ġsunshine": 7498,
      "remark": 7499,
      "AGE": 7500,
      "Ġprinted": 7501,
      "Ġcorridor": 7502,
      "ĠGUTEN": 7503,
      "bour": 7504,
      "Ġwreck": 7505,
      "ĠSid": 7506,
      "Ġ\"'": 7507,
      "ĠĠĠĠĠĠĠčĊ": 7508,
      "elph": 7509,
      "ĠRoman": 7510,
      "Ġsmart": 7511,
      "Ġeloqu": 7512,
      "Ġembarrass": 7513,
      "Ġcompliment": 7514,
      "Ġdomestic": 7515,
      "XT": 7516,
      "orical": 7517,
      "ĠJer": 7518,
      "Ġmonstrous": 7519,
      "Ġdepends": 7520,
      "ĠMartian": 7521,
      "Ġexhausted": 7522,
      "fav": 7523,
      "money": 7524,
      "uit": 7525,
      "incl": 7526,
      "owl": 7527,
      "ĠTars": 7528,
      "Ġplot": 7529,
      "enses": 7530,
      "Ġscent": 7531,
      "Ġentering": 7532,
      "ĠUnder": 7533,
      "Ġdecision": 7534,
      "Ġmagic": 7535,
      "Ġfunction": 7536,
      "Ġecho": 7537,
      "Ġmagnificent": 7538,
      "gard": 7539,
      "tre": 7540,
      "Ġfired": 7541,
      "riot": 7542,
      "chin": 7543,
      "ĠAkut": 7544,
      "Ġshone": 7545,
      "univers": 7546,
      "ĠFather": 7547,
      "deep": 7548,
      "Ġentit": 7549,
      "Ġincred": 7550,
      "Ġpreserve": 7551,
      "Ġgenuine": 7552,
      "asket": 7553,
      "Ġpermanent": 7554,
      "ĠGUTENBERG": 7555,
      "rend": 7556,
      "erforth": 7557,
      "onies": 7558,
      "Ġlament": 7559,
      "Ġyell": 7560,
      "Ġcarpet": 7561,
      "Ġreceiving": 7562,
      "Ġdefined": 7563,
      "Ġmasters": 7564,
      "ridge": 7565,
      "Ġprepare": 7566,
      "Ġacknowled": 7567,
      "ĠAgnes": 7568,
      "offee": 7569,
      "Ġhorizon": 7570,
      "Ġach": 7571,
      "Ġstolen": 7572,
      "author": 7573,
      "Ġrecovered": 7574,
      "Ġextrem": 7575,
      "Ġruns": 7576,
      "Ġcontraries": 7577,
      "Ġ30": 7578,
      "Ġcrack": 7579,
      "Ġdemoc": 7580,
      "Ġphilosopher": 7581,
      "Ġhunger": 7582,
      "Ġaffectionate": 7583,
      "Say": 7584,
      "wy": 7585,
      "Ġtour": 7586,
      "verty": 7587,
      "Ġsust": 7588,
      "ĠShang": 7589,
      "ĠEgypt": 7590,
      "ĠNext": 7591,
      "Ġhumour": 7592,
      "Ġadmire": 7593,
      "Ġdenied": 7594,
      "Ġengage": 7595,
      "infl": 7596,
      "rive": 7597,
      "Ġshoot": 7598,
      "Ġfarew": 7599,
      "prob": 7600,
      "Ġconcealed": 7601,
      "says": 7602,
      "Ġridiculous": 7603,
      "Ġcorresponding": 7604,
      "Ġmounted": 7605,
      "idly": 7606,
      "ifted": 7607,
      "ama": 7608,
      "thy": 7609,
      "onga": 7610,
      "Ġprop": 7611,
      "Ġpoverty": 7612,
      "Ġputs": 7613,
      "Ġstately": 7614,
      "Ġtermed": 7615,
      "Ġremarks": 7616,
      "Ġslightest": 7617,
      "Ġswiftly": 7618,
      "Ġdemonstration": 7619,
      "Ġleisure": 7620,
      "Ġfarewell": 7621,
      "cross": 7622,
      "voice": 7623,
      "Ġtide": 7624,
      "Ġstuck": 7625,
      "igation": 7626,
      "Ġabund": 7627,
      "Ġunited": 7628,
      "Ġflatter": 7629,
      "issippi": 7630,
      "Ġglim": 7631,
      "Ġ25": 7632,
      "Ġwitch": 7633,
      "pherd": 7634,
      "Ġsacrifice": 7635,
      "Ġheir": 7636,
      "Ġrelease": 7637,
      "versed": 7638,
      "angle": 7639,
      "Ġrivers": 7640,
      "Ġinvolved": 7641,
      "Ġthousands": 7642,
      "Ġfastened": 7643,
      "Ġavo": 7644,
      "Ġsailor": 7645,
      "Ġdeclare": 7646,
      "Ġadopted": 7647,
      "Two": 7648,
      "Dear": 7649,
      "ĠHester": 7650,
      "Ġrhe": 7651,
      "ĠColl": 7652,
      "Ġattent": 7653,
      "Ġchiefly": 7654,
      "Ġgardens": 7655,
      "Ġpreviously": 7656,
      "Ġmuttered": 7657,
      "friends": 7658,
      "Ġpopulation": 7659,
      "Ġinjury": 7660,
      "ĠDorian": 7661,
      "QUEEN": 7662,
      "verage": 7663,
      "andy": 7664,
      "Ġmanufact": 7665,
      "Ġlesser": 7666,
      "Ġelephant": 7667,
      "Ġexchange": 7668,
      "Ġcaval": 7669,
      "Most": 7670,
      "_.": 7671,
      "Ġwilt": 7672,
      "seven": 7673,
      "ĠSpe": 7674,
      "ĠGive": 7675,
      "Ġappla": 7676,
      "Ġrifle": 7677,
      "Ġlimb": 7678,
      "Ġpalm": 7679,
      "Ġannoy": 7680,
      "commun": 7681,
      "Ġsailors": 7682,
      "Ġnurse": 7683,
      "hoebe": 7684,
      "Le": 7685,
      "motion": 7686,
      "eration": 7687,
      "Ġcher": 7688,
      "otions": 7689,
      "ooped": 7690,
      "Ġshrie": 7691,
      "Ġconfident": 7692,
      "Ġmonster": 7693,
      "ISTR": 7694,
      "Ġtroops": 7695,
      "ĠRobert": 7696,
      "Ġcategories": 7697,
      "Perhaps": 7698,
      "John": 7699,
      "cut": 7700,
      "fashion": 7701,
      "pict": 7702,
      "sure": 7703,
      "Ġinher": 7704,
      "leans": 7705,
      "ĠCor": 7706,
      "Ġfeed": 7707,
      "abb": 7708,
      "Ġretire": 7709,
      "Ġinterval": 7710,
      "Ġcareer": 7711,
      "Ġearthly": 7712,
      "Ġinspect": 7713,
      "Ġproduct": 7714,
      "ifford": 7715,
      "Ġavail": 7716,
      "ĠWhether": 7717,
      "OG": 7718,
      "girl": 7719,
      "ĠRed": 7720,
      "Ġtrick": 7721,
      "Ġconfused": 7722,
      "Ġreaders": 7723,
      "practical": 7724,
      "cogn": 7725,
      "nut": 7726,
      "vill": 7727,
      "Ġfain": 7728,
      "Ġhoney": 7729,
      "sters": 7730,
      "wealth": 7731,
      "Ġaccess": 7732,
      "Ġstraw": 7733,
      "Ġprayers": 7734,
      "HAMLET": 7735,
      "ISTRESS": 7736,
      "Ġaesthetic": 7737,
      "idable": 7738,
      "ĠThan": 7739,
      "ĠCON": 7740,
      "reath": 7741,
      "Ġjob": 7742,
      "ĠKING": 7743,
      "ĠGods": 7744,
      "Ġabsent": 7745,
      "Ġbelonged": 7746,
      "Ġreverence": 7747,
      "Ġdepth": 7748,
      "Ġamazement": 7749,
      "Ġdishon": 7750,
      "wonder": 7751,
      "Ġtin": 7752,
      "Ġoil": 7753,
      "ĠChe": 7754,
      "ickly": 7755,
      "Ġinstances": 7756,
      "Ġintercourse": 7757,
      "Ġshortly": 7758,
      "Ġvirtuous": 7759,
      "Ġangel": 7760,
      "ban": 7761,
      "bbed": 7762,
      "ras": 7763,
      "uing": 7764,
      "Ġfile": 7765,
      "Ġbeating": 7766,
      "ĠMin": 7767,
      "Ġrout": 7768,
      "Ġsheet": 7769,
      "Ġslain": 7770,
      "Ġrelieved": 7771,
      "EST": 7772,
      "Ġphysician": 7773,
      "Ġidentity": 7774,
      "appearance": 7775,
      "further": 7776,
      "ugh": 7777,
      "orse": 7778,
      "arched": 7779,
      "Ġsober": 7780,
      "ĠLand": 7781,
      "ranger": 7782,
      "Ġbrass": 7783,
      "While": 7784,
      "Ġencourage": 7785,
      "ĠHepzibah": 7786,
      "Ġwra": 7787,
      "Ġwars": 7788,
      "Ġfant": 7789,
      "least": 7790,
      "ĠSTE": 7791,
      "Ġmanaged": 7792,
      "ĠEv": 7793,
      "ĠNat": 7794,
      "irect": 7795,
      "Ġpermission": 7796,
      "ĠPrincess": 7797,
      "porary": 7798,
      "BK": 7799,
      "itating": 7800,
      "Ġfolly": 7801,
      "ĠMont": 7802,
      "Ġdeaf": 7803,
      "apart": 7804,
      "Ġtrunk": 7805,
      "ocation": 7806,
      "Ġsatisfy": 7807,
      "amental": 7808,
      "Ġearlier": 7809,
      "Par": 7810,
      "Ġbay": 7811,
      "Ġnational": 7812,
      "icip": 7813,
      "Ġeating": 7814,
      "Ġassembly": 7815,
      "Ġanch": 7816,
      "Ġsoot": 7817,
      "anty": 7818,
      "ĠCart": 7819,
      "asts": 7820,
      "Ġdownward": 7821,
      "ĠRICH": 7822,
      "Ġtrump": 7823,
      "merely": 7824,
      "ĠTox": 7825,
      "parts": 7826,
      "Ġequivalent": 7827,
      "pended": 7828,
      "matical": 7829,
      "ĠScott": 7830,
      "ĠJuly": 7831,
      "pain": 7832,
      "virt": 7833,
      "yes": 7834,
      "Ġvel": 7835,
      "Ġsway": 7836,
      "Ġbutt": 7837,
      "Ġdoc": 7838,
      "Ġvote": 7839,
      "Ġcontrol": 7840,
      "Therefore": 7841,
      "Ġhelpless": 7842,
      "OUR": 7843,
      "Ġmurdered": 7844,
      "Ġconcerns": 7845,
      "Ġfeeble": 7846,
      "GLOUCESTER": 7847,
      "eight": 7848,
      "lad": 7849,
      "towards": 7850,
      "oof": 7851,
      "Ġteacher": 7852,
      "****": 7853,
      "Ġfamilies": 7854,
      "Ġknights": 7855,
      "Ġmurmured": 7856,
      "burn": 7857,
      "Ġgit": 7858,
      "Ġep": 7859,
      "several": 7860,
      "ĠPet": 7861,
      "few": 7862,
      "ĠThree": 7863,
      "Ġdoorway": 7864,
      "Ġconsidering": 7865,
      "Ġcenturies": 7866,
      "Ġcraw": 7867,
      "Ġtouching": 7868,
      "Ġsources": 7869,
      "ĠSmith": 7870,
      "eous": 7871,
      "phan": 7872,
      "Ġpages": 7873,
      "ĠBal": 7874,
      "elcome": 7875,
      "Ġjur": 7876,
      "Ġproceeding": 7877,
      "regard": 7878,
      "Ġpredicate": 7879,
      "Ġdistinctly": 7880,
      "Ġdisturb": 7881,
      "Ġdisturbed": 7882,
      "LAND": 7883,
      "ded": 7884,
      "list": 7885,
      "ĠAD": 7886,
      "geon": 7887,
      "Ġrow": 7888,
      "ago": 7889,
      "class": 7890,
      "answer": 7891,
      "compan": 7892,
      "Ġ188": 7893,
      "Ġbuildings": 7894,
      "truth": 7895,
      "Ġtyran": 7896,
      "overnor": 7897,
      "purpose": 7898,
      "Ġliterary": 7899,
      "Ġperpetual": 7900,
      "Ġtore": 7901,
      "aining": 7902,
      "ĠMark": 7903,
      "Ġratt": 7904,
      "Ġflour": 7905,
      "Ġbackward": 7906,
      "Ġrecover": 7907,
      "contrad": 7908,
      "animals": 7909,
      "dog": 7910,
      "reement": 7911,
      "Ġnay": 7912,
      "---": 7913,
      "ĠOct": 7914,
      "ĠNE": 7915,
      "ĠJune": 7916,
      "onsense": 7917,
      "Ġtrip": 7918,
      "grind": 7919,
      "Ġremembrance": 7920,
      "Ġcompleted": 7921,
      "Ġmuscles": 7922,
      "Ġconviction": 7923,
      "objects": 7924,
      "ĠTeeka": 7925,
      "Ġhypothesis": 7926,
      "tree": 7927,
      "uty": 7928,
      "ram": 7929,
      "Ġshrill": 7930,
      "Ġvivid": 7931,
      "ĠEarl": 7932,
      "Ġscenes": 7933,
      "Ġwrath": 7934,
      "Ġpreserved": 7935,
      "Ġtranqu": 7936,
      "Ġsuccessful": 7937,
      "Ġcollection": 7938,
      "ĠColonel": 7939,
      "Ġdesirable": 7940,
      "beth": 7941,
      "greg": 7942,
      "stud": 7943,
      "Ġriding": 7944,
      "often": 7945,
      "ĠDes": 7946,
      "Ġdiscourse": 7947,
      "astern": 7948,
      "Ġeleg": 7949,
      "Ġbenef": 7950,
      "Ġmingled": 7951,
      "Ġpropriet": 7952,
      "mel": 7953,
      "Ġpoem": 7954,
      "atching": 7955,
      "Ġlanded": 7956,
      "couldn": 7957,
      "Ġmissed": 7958,
      "Ġenjoyment": 7959,
      "Ġcombination": 7960,
      "Ġdemanded": 7961,
      "Ġdeceived": 7962,
      "Ġfortunate": 7963,
      "Ġdangers": 7964,
      "zo": 7965,
      "esy": 7966,
      "asked": 7967,
      "Ġnerves": 7968,
      "rage": 7969,
      "ĠSing": 7970,
      "peror": 7971,
      "ĠFer": 7972,
      "Ġbride": 7973,
      "Ġcomposition": 7974,
      "Ġslumber": 7975,
      "Ġcertainty": 7976,
      "Ġmadness": 7977,
      "Ġfortunes": 7978,
      "Ġobscure": 7979,
      "King": 7980,
      "PAR": 7981,
      "bound": 7982,
      "icians": 7983,
      "utch": 7984,
      "racy": 7985,
      "resist": 7986,
      "forms": 7987,
      "Ġspiritual": 7988,
      "yncheon": 7989,
      "Ġadminist": 7990,
      "Ġincapable": 7991,
      "sal": 7992,
      "Ġwoe": 7993,
      "Ġquad": 7994,
      "Ġthrong": 7995,
      "Ġhastened": 7996,
      "Ġmissing": 7997,
      "warf": 7998,
      "absolute": 7999
    },
    "merges": [
      [
        "Ġ",
        "t"
      ],
      [
        "h",
        "e"
      ],
      [
        "č",
        "Ċ"
      ],
      [
        "Ġ",
        "a"
      ],
      [
        "Ġ",
        "Ġ"
      ],
      [
        "i",
        "n"
      ],
      [
        "Ġt",
        "he"
      ],
      [
        "Ġ",
        "o"
      ],
      [
        "r",
        "e"
      ],
      [
        "Ġ",
        "w"
      ],
      [
        "Ġ",
        "s"
      ],
      [
        "n",
        "d"
      ],
      [
        "h",
        "a"
      ],
      [
        "e",
        "r"
      ],
      [
        "o",
        "u"
      ],
      [
        "i",
        "t"
      ],
      [
        "i",
        "s"
      ],
      [
        "Ġ",
        "b"
      ],
      [
        "o",
        "n"
      ],
      [
        "Ġ",
        "m"
      ],
      [
        "ĠĠ",
        "ĠĠ"
      ],
      [
        "Ġo",
        "f"
      ],
      [
        "e",
        "n"
      ],
      [
        "e",
        "d"
      ],
      [
        "Ġ",
        "f"
      ],
      [
        "Ġ",
        "c"
      ],
      [
        "Ġa",
        "nd"
      ],
      [
        "o",
        "r"
      ],
      [
        "e",
        "s"
      ],
      [
        "Ġt",
        "o"
      ],
      [
        "in",
        "g"
      ],
      [
        "Ġ",
        "p"
      ],
      [
        "l",
        "l"
      ],
      [
        "Ġ",
        "in"
      ],
      [
        "Ġ",
        "d"
      ],
      [
        "a",
        "r"
      ],
      [
        "a",
        "t"
      ],
      [
        "a",
        "n"
      ],
      [
        "a",
        "s"
      ],
      [
        "Ġ",
        "n"
      ],
      [
        "Ġ",
        "h"
      ],
      [
        "Ġ",
        "l"
      ],
      [
        "o",
        "m"
      ],
      [
        "ha",
        "t"
      ],
      [
        "Ġ",
        "I"
      ],
      [
        "l",
        "e"
      ],
      [
        "Ġ",
        "he"
      ],
      [
        "Ġ",
        "ha"
      ],
      [
        "i",
        "c"
      ],
      [
        "Ġb",
        "e"
      ],
      [
        "o",
        "t"
      ],
      [
        "Ġ",
        "g"
      ],
      [
        "u",
        "t"
      ],
      [
        "o",
        "w"
      ],
      [
        "Ġ",
        "e"
      ],
      [
        "s",
        "t"
      ],
      [
        "s",
        "e"
      ],
      [
        "i",
        "on"
      ],
      [
        "v",
        "e"
      ],
      [
        "Ġt",
        "h"
      ],
      [
        "i",
        "m"
      ],
      [
        "Ġ",
        "it"
      ],
      [
        "Ġt",
        "hat"
      ],
      [
        "c",
        "e"
      ],
      [
        "l",
        "d"
      ],
      [
        "en",
        "t"
      ],
      [
        "l",
        "y"
      ],
      [
        "ĠĠĠĠ",
        "ĠĠĠĠ"
      ],
      [
        "a",
        "l"
      ],
      [
        "i",
        "d"
      ],
      [
        "Ġ",
        "y"
      ],
      [
        "g",
        "h"
      ],
      [
        "Ġ",
        "u"
      ],
      [
        "Ġ",
        "re"
      ],
      [
        "Ġ",
        "is"
      ],
      [
        "a",
        "y"
      ],
      [
        "i",
        "r"
      ],
      [
        "Ġ",
        "čĊ"
      ],
      [
        "Ġw",
        "h"
      ],
      [
        "it",
        "h"
      ],
      [
        "v",
        "er"
      ],
      [
        "e",
        "t"
      ],
      [
        "Ġo",
        "n"
      ],
      [
        "Ġw",
        "as"
      ],
      [
        "u",
        "r"
      ],
      [
        "Ġy",
        "ou"
      ],
      [
        "Ġ",
        "T"
      ],
      [
        "Ġa",
        "s"
      ],
      [
        "Ġf",
        "or"
      ],
      [
        "c",
        "t"
      ],
      [
        "t",
        "he"
      ],
      [
        "Ġw",
        "ith"
      ],
      [
        "Ġw",
        "e"
      ],
      [
        "Ġh",
        "is"
      ],
      [
        "r",
        "o"
      ],
      [
        "a",
        "d"
      ],
      [
        "gh",
        "t"
      ],
      [
        "Ġa",
        "n"
      ],
      [
        "Ġs",
        "t"
      ],
      [
        "Ġn",
        "ot"
      ],
      [
        "r",
        "i"
      ],
      [
        "ou",
        "ld"
      ],
      [
        "c",
        "h"
      ],
      [
        "r",
        "a"
      ],
      [
        "i",
        "f"
      ],
      [
        "a",
        "m"
      ],
      [
        "o",
        "o"
      ],
      [
        "ic",
        "h"
      ],
      [
        "t",
        "er"
      ],
      [
        "a",
        "nd"
      ],
      [
        "i",
        "ll"
      ],
      [
        "Ġm",
        "e"
      ],
      [
        "Ġa",
        "t"
      ],
      [
        "a",
        "in"
      ],
      [
        "Ġha",
        "d"
      ],
      [
        "k",
        "e"
      ],
      [
        "es",
        "s"
      ],
      [
        "Ġ",
        "A"
      ],
      [
        "o",
        "re"
      ],
      [
        "t",
        "h"
      ],
      [
        "Ġs",
        "e"
      ],
      [
        "Ġwh",
        "ich"
      ],
      [
        "Ġs",
        "u"
      ],
      [
        "Ġm",
        "y"
      ],
      [
        "i",
        "l"
      ],
      [
        "p",
        "e"
      ],
      [
        "Ġ",
        "S"
      ],
      [
        "Ġha",
        "ve"
      ],
      [
        "he",
        "r"
      ],
      [
        "ĠT",
        "he"
      ],
      [
        "r",
        "om"
      ],
      [
        "Ġs",
        "o"
      ],
      [
        "Ġ",
        "M"
      ],
      [
        "Ġb",
        "y"
      ],
      [
        "Ġh",
        "im"
      ],
      [
        "Ġc",
        "on"
      ],
      [
        "u",
        "l"
      ],
      [
        "a",
        "ll"
      ],
      [
        "Ġb",
        "ut"
      ],
      [
        "Ġ",
        "H"
      ],
      [
        "Ġd",
        "e"
      ],
      [
        "Ġo",
        "r"
      ],
      [
        "g",
        "e"
      ],
      [
        "'",
        "s"
      ],
      [
        "Ġ",
        "\""
      ],
      [
        "re",
        "d"
      ],
      [
        "Ġth",
        "is"
      ],
      [
        "at",
        "ion"
      ],
      [
        "q",
        "u"
      ],
      [
        "om",
        "e"
      ],
      [
        "Ġu",
        "p"
      ],
      [
        "Ġa",
        "ll"
      ],
      [
        "b",
        "le"
      ],
      [
        "Ġs",
        "a"
      ],
      [
        "i",
        "ght"
      ],
      [
        "Ġ",
        "k"
      ],
      [
        "c",
        "k"
      ],
      [
        "re",
        "s"
      ],
      [
        "u",
        "s"
      ],
      [
        "t",
        "o"
      ],
      [
        "Ġf",
        "rom"
      ],
      [
        "es",
        "t"
      ],
      [
        "Ġa",
        "re"
      ],
      [
        "Ġe",
        "x"
      ],
      [
        "p",
        "p"
      ],
      [
        "o",
        "s"
      ],
      [
        "Ġn",
        "e"
      ],
      [
        "Ġhe",
        "r"
      ],
      [
        "Ġ",
        "B"
      ],
      [
        "Ġd",
        "o"
      ],
      [
        "Ġw",
        "he"
      ],
      [
        "Ġs",
        "h"
      ],
      [
        "u",
        "st"
      ],
      [
        "ou",
        "s"
      ],
      [
        "Ġthe",
        "y"
      ],
      [
        "u",
        "n"
      ],
      [
        "in",
        "d"
      ],
      [
        "Ġm",
        "an"
      ],
      [
        "Ġ",
        "v"
      ],
      [
        "ĠĠĠĠĠĠĠĠ",
        "ĠĠĠĠĠĠĠĠ"
      ],
      [
        "Ġn",
        "o"
      ],
      [
        "u",
        "m"
      ],
      [
        "-",
        "-"
      ],
      [
        "Ġ",
        "W"
      ],
      [
        "ou",
        "r"
      ],
      [
        "ar",
        "d"
      ],
      [
        "e",
        "m"
      ],
      [
        "Ġon",
        "e"
      ],
      [
        "on",
        "g"
      ],
      [
        "ar",
        "t"
      ],
      [
        "an",
        "t"
      ],
      [
        "er",
        "s"
      ],
      [
        "at",
        "e"
      ],
      [
        "Ġ",
        "r"
      ],
      [
        "se",
        "l"
      ],
      [
        "Ġ",
        "C"
      ],
      [
        "Ġa",
        "l"
      ],
      [
        "i",
        "ve"
      ],
      [
        "the",
        "r"
      ],
      [
        "Ġthe",
        "m"
      ],
      [
        "u",
        "re"
      ],
      [
        "ver",
        "y"
      ],
      [
        "oo",
        "d"
      ],
      [
        "ha",
        "n"
      ],
      [
        "is",
        "t"
      ],
      [
        "e",
        "ct"
      ],
      [
        "it",
        "y"
      ],
      [
        "o",
        "l"
      ],
      [
        "Ġthe",
        "re"
      ],
      [
        "am",
        "e"
      ],
      [
        "ou",
        "nd"
      ],
      [
        "Ġwh",
        "o"
      ],
      [
        "ou",
        "t"
      ],
      [
        "as",
        "t"
      ],
      [
        "Ġwe",
        "re"
      ],
      [
        "l",
        "a"
      ],
      [
        "Ġsa",
        "id"
      ],
      [
        "e",
        "ll"
      ],
      [
        "ĠĠĠĠ",
        "ĠĠ"
      ],
      [
        "on",
        "e"
      ],
      [
        "Ġthe",
        "ir"
      ],
      [
        "i",
        "g"
      ],
      [
        "Ġw",
        "ould"
      ],
      [
        "p",
        "t"
      ],
      [
        "Ġk",
        "n"
      ],
      [
        "Ġc",
        "om"
      ],
      [
        "Ġw",
        "ill"
      ],
      [
        "a",
        "k"
      ],
      [
        "Ġp",
        "ro"
      ],
      [
        "n",
        "t"
      ],
      [
        "Ġ",
        "P"
      ],
      [
        "i",
        "v"
      ],
      [
        "Ġ",
        "'"
      ],
      [
        "i",
        "e"
      ],
      [
        "ou",
        "gh"
      ],
      [
        "re",
        "at"
      ],
      [
        ".",
        "\""
      ],
      [
        "o",
        "d"
      ],
      [
        "o",
        "f"
      ],
      [
        "Ġw",
        "or"
      ],
      [
        "e",
        "l"
      ],
      [
        "Ġl",
        "e"
      ],
      [
        "Ġs",
        "he"
      ],
      [
        "Ġa",
        "b"
      ],
      [
        "ow",
        "n"
      ],
      [
        "Ġ",
        "if"
      ],
      [
        "Ġ",
        "j"
      ],
      [
        "Ġo",
        "ut"
      ],
      [
        "T",
        "he"
      ],
      [
        "sel",
        "f"
      ],
      [
        "or",
        "t"
      ],
      [
        "i",
        "es"
      ],
      [
        "Ġup",
        "on"
      ],
      [
        "en",
        "ce"
      ],
      [
        "Ġbe",
        "en"
      ],
      [
        "Ġc",
        "an"
      ],
      [
        "Ġf",
        "a"
      ],
      [
        "id",
        "e"
      ],
      [
        "Ġo",
        "ther"
      ],
      [
        "p",
        "er"
      ],
      [
        "Ġw",
        "hat"
      ],
      [
        "Ġwhe",
        "n"
      ],
      [
        "Ġu",
        "n"
      ],
      [
        "o",
        "se"
      ],
      [
        "o",
        "st"
      ],
      [
        "oo",
        "k"
      ],
      [
        "Ġan",
        "y"
      ],
      [
        "it",
        "t"
      ],
      [
        "Ġyou",
        "r"
      ],
      [
        "r",
        "y"
      ],
      [
        "im",
        "e"
      ],
      [
        "Ġo",
        "ur"
      ],
      [
        "o",
        "nd"
      ],
      [
        "c",
        "i"
      ],
      [
        "m",
        "ent"
      ],
      [
        "Ġ",
        "F"
      ],
      [
        "Ġa",
        "r"
      ],
      [
        "a",
        "ble"
      ],
      [
        "Ġu",
        "s"
      ],
      [
        "a",
        "ke"
      ],
      [
        "Ġ",
        "D"
      ],
      [
        "'",
        "t"
      ],
      [
        "c",
        "c"
      ],
      [
        "Ġm",
        "ore"
      ],
      [
        "f",
        "ore"
      ],
      [
        "Ġa",
        "g"
      ],
      [
        "u",
        "d"
      ],
      [
        "v",
        "en"
      ],
      [
        "Ġs",
        "ome"
      ],
      [
        "t",
        "e"
      ],
      [
        "an",
        "ce"
      ],
      [
        "p",
        "l"
      ],
      [
        "p",
        "le"
      ],
      [
        "Ġl",
        "i"
      ],
      [
        "he",
        "d"
      ],
      [
        "Ġa",
        "m"
      ],
      [
        "Ġ",
        "qu"
      ],
      [
        "a",
        "g"
      ],
      [
        "as",
        "s"
      ],
      [
        "ĠĠĠĠĠĠ",
        "Ġ"
      ],
      [
        "Ġ",
        "L"
      ],
      [
        "f",
        "f"
      ],
      [
        "ĠH",
        "e"
      ],
      [
        "Ġf",
        "e"
      ],
      [
        "Ġc",
        "ould"
      ],
      [
        "b",
        "e"
      ],
      [
        "Ġin",
        "to"
      ],
      [
        "in",
        "e"
      ],
      [
        "Ġs",
        "ha"
      ],
      [
        "Ġha",
        "s"
      ],
      [
        "h",
        "ing"
      ],
      [
        "r",
        "u"
      ],
      [
        "w",
        "ay"
      ],
      [
        "a",
        "u"
      ],
      [
        "Ġ",
        "O"
      ],
      [
        "Ġ",
        "G"
      ],
      [
        "Ġ",
        "E"
      ],
      [
        "ot",
        "her"
      ],
      [
        "ur",
        "n"
      ],
      [
        "Ġ",
        "N"
      ],
      [
        "ĠM",
        "r"
      ],
      [
        "Ġthe",
        "n"
      ],
      [
        "ion",
        "s"
      ],
      [
        "Ġt",
        "han"
      ],
      [
        "it",
        "e"
      ],
      [
        "Ġg",
        "o"
      ],
      [
        "w",
        "e"
      ],
      [
        "Ġkn",
        "ow"
      ],
      [
        "Ġit",
        "s"
      ],
      [
        "Ġs",
        "p"
      ],
      [
        "Ġ",
        "im"
      ],
      [
        ",",
        "\""
      ],
      [
        "o",
        "ve"
      ],
      [
        "e",
        "p"
      ],
      [
        "or",
        "d"
      ],
      [
        "ing",
        "s"
      ],
      [
        "ĠI",
        "t"
      ],
      [
        "Ġt",
        "ime"
      ],
      [
        "all",
        "y"
      ],
      [
        "Ġs",
        "ay"
      ],
      [
        "Ġt",
        "w"
      ],
      [
        "b",
        "l"
      ],
      [
        "ic",
        "e"
      ],
      [
        "is",
        "h"
      ],
      [
        "a",
        "re"
      ],
      [
        "nd",
        "er"
      ],
      [
        "i",
        "re"
      ],
      [
        "w",
        "n"
      ],
      [
        "Ġ",
        "en"
      ],
      [
        "ou",
        "ght"
      ],
      [
        "Ġ",
        "ro"
      ],
      [
        "Ġd",
        "is"
      ],
      [
        "in",
        "k"
      ],
      [
        "Ġn",
        "ow"
      ],
      [
        "ic",
        "k"
      ],
      [
        "Ġp",
        "r"
      ],
      [
        "Ġm",
        "ay"
      ],
      [
        "Ġsh",
        "ould"
      ],
      [
        "r",
        "an"
      ],
      [
        "ar",
        "s"
      ],
      [
        "Ġon",
        "ly"
      ],
      [
        "Ġg",
        "reat"
      ],
      [
        "Ġ",
        "very"
      ],
      [
        "ad",
        "e"
      ],
      [
        "Ġse",
        "e"
      ],
      [
        "Ġc",
        "l"
      ],
      [
        "Ġa",
        "d"
      ],
      [
        "re",
        "e"
      ],
      [
        "a",
        "c"
      ],
      [
        "Ġthe",
        "se"
      ],
      [
        "n",
        "g"
      ],
      [
        "Ġha",
        "nd"
      ],
      [
        "Ġli",
        "ke"
      ],
      [
        "Ġg",
        "ood"
      ],
      [
        "Ġm",
        "ust"
      ],
      [
        "itt",
        "le"
      ],
      [
        "Ġp",
        "art"
      ],
      [
        "t",
        "y"
      ],
      [
        "res",
        "s"
      ],
      [
        "h",
        "is"
      ],
      [
        "ar",
        "y"
      ],
      [
        "f",
        "or"
      ],
      [
        "a",
        "ge"
      ],
      [
        "Ġto",
        "o"
      ],
      [
        "ou",
        "nt"
      ],
      [
        "j",
        "ect"
      ],
      [
        "b",
        "er"
      ],
      [
        "a",
        "ck"
      ],
      [
        "Ġag",
        "ain"
      ],
      [
        "i",
        "le"
      ],
      [
        "a",
        "p"
      ],
      [
        "Ġp",
        "o"
      ],
      [
        "Ġab",
        "out"
      ],
      [
        "Ġp",
        "er"
      ],
      [
        "t",
        "ain"
      ],
      [
        "os",
        "s"
      ],
      [
        "ĠB",
        "ut"
      ],
      [
        "a",
        "b"
      ],
      [
        "it",
        "ion"
      ],
      [
        "m",
        "an"
      ],
      [
        "f",
        "e"
      ],
      [
        "u",
        "ch"
      ],
      [
        "a",
        "ch"
      ],
      [
        "v",
        "ed"
      ],
      [
        "n",
        "e"
      ],
      [
        "Ġg",
        "r"
      ],
      [
        "i",
        "ed"
      ],
      [
        "Ġsu",
        "ch"
      ],
      [
        "Ġc",
        "h"
      ],
      [
        "Ġl",
        "ittle"
      ],
      [
        "ir",
        "st"
      ],
      [
        "?",
        "\""
      ],
      [
        "Ġl",
        "ook"
      ],
      [
        "f",
        "ul"
      ],
      [
        "at",
        "ed"
      ],
      [
        "ar",
        "k"
      ],
      [
        "Ġo",
        "ver"
      ],
      [
        "f",
        "ter"
      ],
      [
        "Ġ",
        "J"
      ],
      [
        "Ġ",
        "("
      ],
      [
        "Ġd",
        "own"
      ],
      [
        "Ġd",
        "id"
      ],
      [
        "w",
        "ard"
      ],
      [
        "Ġtw",
        "o"
      ],
      [
        "ri",
        "ght"
      ],
      [
        "if",
        "e"
      ],
      [
        "n",
        "ot"
      ],
      [
        "o",
        "ll"
      ],
      [
        "Ġo",
        "b"
      ],
      [
        "n",
        "ess"
      ],
      [
        "w",
        "h"
      ],
      [
        "Ġd",
        "ay"
      ],
      [
        "Ġh",
        "ow"
      ],
      [
        "Ġth",
        "r"
      ],
      [
        "t",
        "hat"
      ],
      [
        "ĠA",
        "nd"
      ],
      [
        "is",
        "e"
      ],
      [
        "Ġp",
        "re"
      ],
      [
        ",",
        "'"
      ],
      [
        "Ġw",
        "ay"
      ],
      [
        "Ġb",
        "r"
      ],
      [
        "e",
        "nd"
      ],
      [
        "s",
        "o"
      ],
      [
        "v",
        "es"
      ],
      [
        "Ġbe",
        "fore"
      ],
      [
        "i",
        "ous"
      ],
      [
        "d",
        "e"
      ],
      [
        "c",
        "on"
      ],
      [
        "Ġc",
        "ha"
      ],
      [
        "o",
        "ld"
      ],
      [
        "o",
        "p"
      ],
      [
        "in",
        "t"
      ],
      [
        "Ġe",
        "very"
      ],
      [
        "Ġp",
        "l"
      ],
      [
        "c",
        "es"
      ],
      [
        "Ġs",
        "pe"
      ],
      [
        "Ġ",
        "R"
      ],
      [
        "o",
        "y"
      ],
      [
        "l",
        "ed"
      ],
      [
        "en",
        "s"
      ],
      [
        "Ġb",
        "l"
      ],
      [
        "i",
        "ble"
      ],
      [
        "Ġ",
        "Y"
      ],
      [
        "Ġo",
        "wn"
      ],
      [
        "Ġre",
        "m"
      ],
      [
        "u",
        "e"
      ],
      [
        "Ġo",
        "ld"
      ],
      [
        "u",
        "ll"
      ],
      [
        "ic",
        "al"
      ],
      [
        "Ġl",
        "ong"
      ],
      [
        "he",
        "n"
      ],
      [
        "Ġu",
        "nder"
      ],
      [
        "Ġ",
        "ra"
      ],
      [
        "Ġp",
        "e"
      ],
      [
        "i",
        "ld"
      ],
      [
        "at",
        "her"
      ],
      [
        "Ġof",
        "f"
      ],
      [
        "Ġm",
        "ade"
      ],
      [
        "c",
        "l"
      ],
      [
        "or",
        "n"
      ],
      [
        "Ġcon",
        "t"
      ],
      [
        "Ġwhe",
        "re"
      ],
      [
        "Ġne",
        "ver"
      ],
      [
        "at",
        "h"
      ],
      [
        "as",
        "e"
      ],
      [
        "Ġsha",
        "ll"
      ],
      [
        "Ġ",
        "--"
      ],
      [
        "o",
        "g"
      ],
      [
        "a",
        "w"
      ],
      [
        "Ġbe",
        "t"
      ],
      [
        "Ġm",
        "ight"
      ],
      [
        "c",
        "ed"
      ],
      [
        "Ġf",
        "irst"
      ],
      [
        "Ġe",
        "y"
      ],
      [
        "Ġf",
        "l"
      ],
      [
        "Ġs",
        "ame"
      ],
      [
        ".",
        "'"
      ],
      [
        "au",
        "se"
      ],
      [
        "Ġre",
        "s"
      ],
      [
        "Ġs",
        "c"
      ],
      [
        "Ġc",
        "ome"
      ],
      [
        "Ġbe",
        "c"
      ],
      [
        "i",
        "p"
      ],
      [
        "A",
        "nd"
      ],
      [
        "f",
        "t"
      ],
      [
        "Ġd",
        "es"
      ],
      [
        "ce",
        "pt"
      ],
      [
        "Ġbe",
        "ing"
      ],
      [
        "ig",
        "n"
      ],
      [
        "v",
        "ing"
      ],
      [
        "i",
        "z"
      ],
      [
        "Ġth",
        "ink"
      ],
      [
        "Ġs",
        "m"
      ],
      [
        "as",
        "on"
      ],
      [
        "Ġhe",
        "re"
      ],
      [
        "Ġwe",
        "ll"
      ],
      [
        "Ġa",
        "fter"
      ],
      [
        "Ġp",
        "la"
      ],
      [
        "ot",
        "h"
      ],
      [
        "Ġn",
        "at"
      ],
      [
        "res",
        "ent"
      ],
      [
        "ct",
        "ion"
      ],
      [
        "Ġm",
        "uch"
      ],
      [
        "is",
        "s"
      ],
      [
        "Ġe",
        "ven"
      ],
      [
        "Ġt",
        "r"
      ],
      [
        "ad",
        "y"
      ],
      [
        "Ġm",
        "en"
      ],
      [
        "i",
        "ly"
      ],
      [
        "re",
        "n"
      ],
      [
        "Ġa",
        "cc"
      ],
      [
        "Ġm",
        "ost"
      ],
      [
        "an",
        "s"
      ],
      [
        "e",
        "ver"
      ],
      [
        "a",
        "ve"
      ],
      [
        "Ġl",
        "et"
      ],
      [
        "Ġth",
        "ose"
      ],
      [
        "ĠĠĠĠĠĠĠĠ",
        "ĠĠ"
      ],
      [
        "at",
        "ter"
      ],
      [
        "ra",
        "ct"
      ],
      [
        "ĠĠĠĠĠĠĠĠĠĠĠĠĠĠĠĠ",
        "ĠĠĠĠĠĠĠĠĠĠĠĠĠĠĠĠ"
      ],
      [
        "Ġbe",
        "l"
      ],
      [
        "Ġb",
        "ack"
      ],
      [
        "Ġcon",
        "s"
      ],
      [
        "Ġj",
        "ust"
      ],
      [
        "om",
        "et"
      ],
      [
        "Ġ",
        "-"
      ],
      [
        "Ġthr",
        "ough"
      ],
      [
        "pe",
        "ct"
      ],
      [
        "Ġim",
        "p"
      ],
      [
        "it",
        "her"
      ],
      [
        "Ġth",
        "ought"
      ],
      [
        "ri",
        "ed"
      ],
      [
        "od",
        "y"
      ],
      [
        "Ġm",
        "ake"
      ],
      [
        "Ġfor",
        "m"
      ],
      [
        "ri",
        "end"
      ],
      [
        "w",
        "ith"
      ],
      [
        "ul",
        "t"
      ],
      [
        "ĠI",
        "n"
      ],
      [
        "or",
        "s"
      ],
      [
        "Ġcom",
        "m"
      ],
      [
        "Ġy",
        "e"
      ],
      [
        "Ġg",
        "l"
      ],
      [
        "c",
        "ess"
      ],
      [
        "h",
        "y"
      ],
      [
        "or",
        "y"
      ],
      [
        "ou",
        "se"
      ],
      [
        "Ġp",
        "ass"
      ],
      [
        "he",
        "s"
      ],
      [
        "at",
        "er"
      ],
      [
        "Ġa",
        "pp"
      ],
      [
        "Ġhe",
        "ad"
      ],
      [
        "Ġsu",
        "b"
      ],
      [
        "e",
        "x"
      ],
      [
        "l",
        "ess"
      ],
      [
        "p",
        "s"
      ],
      [
        "b",
        "ut"
      ],
      [
        "ation",
        "s"
      ],
      [
        "Ġse",
        "em"
      ],
      [
        "Ġa",
        "p"
      ],
      [
        "Ġc",
        "ame"
      ],
      [
        "!",
        "\""
      ],
      [
        "g",
        "ed"
      ],
      [
        "en",
        "er"
      ],
      [
        "k",
        "ed"
      ],
      [
        "Ġth",
        "ing"
      ],
      [
        "Ġhim",
        "self"
      ],
      [
        "Ġl",
        "ife"
      ],
      [
        "ic",
        "t"
      ],
      [
        "g",
        "er"
      ],
      [
        "m",
        "e"
      ],
      [
        "Ġy",
        "et"
      ],
      [
        "Ġwor",
        "d"
      ],
      [
        "Ġl",
        "ast"
      ],
      [
        "er",
        "tain"
      ],
      [
        "Ġp",
        "oss"
      ],
      [
        "Ġcom",
        "p"
      ],
      [
        "Ġan",
        "other"
      ],
      [
        "in",
        "ce"
      ],
      [
        "Ġe",
        "nd"
      ],
      [
        "Ġc",
        "all"
      ],
      [
        "Ġ",
        "right"
      ],
      [
        "Ġt",
        "urn"
      ],
      [
        "l",
        "f"
      ],
      [
        "s",
        "h"
      ],
      [
        "Ġf",
        "riend"
      ],
      [
        "Ġ",
        "1"
      ],
      [
        "he",
        "re"
      ],
      [
        "Ġth",
        "ings"
      ],
      [
        "H",
        "e"
      ],
      [
        "Ġf",
        "ar"
      ],
      [
        "Ġst",
        "ill"
      ],
      [
        "Ġe",
        "m"
      ],
      [
        "o",
        "ck"
      ],
      [
        "Ġf",
        "ound"
      ],
      [
        "Ġo",
        "p"
      ],
      [
        "l",
        "i"
      ],
      [
        "Ġw",
        "r"
      ],
      [
        "Ġwith",
        "out"
      ],
      [
        "s",
        "u"
      ],
      [
        "Ġman",
        "y"
      ],
      [
        "t",
        "ed"
      ],
      [
        "Ġ",
        "ent"
      ],
      [
        "Ġ",
        "K"
      ],
      [
        "r",
        "ow"
      ],
      [
        "E",
        "R"
      ],
      [
        "o",
        "c"
      ],
      [
        "i",
        "gh"
      ],
      [
        "I",
        "t"
      ],
      [
        "u",
        "p"
      ],
      [
        "Ġe",
        "ver"
      ],
      [
        "Ġre",
        "ason"
      ],
      [
        "Ġbe",
        "g"
      ],
      [
        "Ġ",
        "ke"
      ],
      [
        "way",
        "s"
      ],
      [
        "ow",
        "er"
      ],
      [
        "Ġa",
[...]
